{
    "!": 0,
    "!!": 1443,
    "!!!": 11194,
    "!!!!": 4003,
    "!!!!!!!!": 11281,
    "!!!!!!!!!!!!!!!!": 30146,
    "!!!!!!!!!!!</w>": 49339,
    "!!!!!!!!!!</w>": 35579,
    "!!!!!!!!!</w>": 28560,
    "!!!!!!!!</w>": 21622,
    "!!!!!!!</w>": 15203,
    "!!!!!!</w>": 9168,
    "!!!!!</w>": 5203,
    "!!!!</w>": 2360,
    "!!!\"</w>": 28048,
    "!!!)</w>": 42532,
    "!!!</w>": 995,
    "!!\"</w>": 20556,
    "!!#</w>": 34997,
    "!!)</w>": 28352,
    "!!</w>": 748,
    "!!@</w>": 40705,
    "!\"</w>": 2947,
    "!\"@</w>": 43819,
    "!#</w>": 9670,
    "!'</w>": 13222,
    "!),</w>": 37904,
    "!).</w>": 26225,
    "!)</w>": 4571,
    "!*</w>": 37737,
    "!,</w>": 29325,
    "!-</w>": 43499,
    "!...</w>": 22121,
    "!..</w>": 35475,
    "!.</w>": 22517,
    "!:)</w>": 31671,
    "!:</w>": 17545,
    "!</w>": 256,
    "!?!</w>": 29767,
    "!?!?</w>": 47081,
    "!?</w>": 6004,
    "!@</w>": 15117,
    "!]</w>": 34466,
    "!âĢ¦</w>": 35068,
    "!âĿ¤ï¸ı</w>": 32559,
    "!ðŁİī</w>": 49085,
    "!ðŁĺĬ</w>": 43434,
    "!ðŁĺį</w>": 36438,
    "\"": 1,
    "\"!</w>": 10377,
    "\"\"": 41530,
    "\"\"\"</w>": 25539,
    "\"\"</w>": 8575,
    "\"#</w>": 8345,
    "\"'</w>": 31065,
    "\"(</w>": 32741,
    "\")</w>": 13112,
    "\",</w>": 4332,
    "\"-</w>": 9375,
    "\"....</w>": 37785,
    "\"...</w>": 9049,
    "\"..</w>": 25403,
    "\".</w>": 2811,
    "\"/</w>": 39486,
    "\":</w>": 7811,
    "\";</w>": 37549,
    "\"</w>": 257,
    "\"?</w>": 11727,
    "\"@</w>": 1512,
    "\"@_</w>": 20236,
    "\"[</w>": 36930,
    "\"âĢ¦</w>": 33993,
    "\"âĢĶ</w>": 41151,
    "#": 2,
    "##</w>": 15483,
    "#...</w>": 31491,
    "#:</w>": 30144,
    "#</w>": 258,
    "#@</w>": 35062,
    "#âĢ¦</w>": 12834,
    "#âĢİ</w>": 34262,
    "$": 3,
    "$$": 24233,
    "$$$</w>": 31859,
    "$$</w>": 14929,
    "$)</w>": 39460,
    "$.</w>": 34682,
    "$</w>": 259,
    "%": 4,
    "%!</w>": 35070,
    "%),</w>": 37819,
    "%)</w>": 16063,
    "%,</w>": 14505,
    "%-</w>": 48784,
    "%.</w>": 12475,
    "%;</w>": 33379,
    "%</w>": 260,
    "&": 5,
    "&&</w>": 27791,
    "&</w>": 261,
    "'": 6,
    "'!</w>": 13781,
    "'\"</w>": 19479,
    "'#</w>": 15319,
    "''": 46594,
    "''</w>": 8445,
    "')</w>": 19175,
    "',</w>": 5662,
    "'-</w>": 26152,
    "'...</w>": 20474,
    "'.</w>": 4645,
    "':</w>": 7182,
    "';</w>": 44517,
    "'</w>": 262,
    "'?</w>": 17242,
    "'@</w>": 26397,
    "'d</w>": 1896,
    "'ll</w>": 1342,
    "'m</w>": 880,
    "'re</w>": 982,
    "'s</w>": 568,
    "'t</w>": 713,
    "'ve</w>": 1200,
    "'âĢ¦</w>": 42120,
    "(": 7,
    "(!)</w>": 30253,
    "(\"</w>": 18741,
    "(#</w>": 6229,
    "($)</w>": 46597,
    "($</w>": 15186,
    "(&</w>": 15042,
    "('</w>": 18235,
    "((": 22944,
    "(((</w>": 33287,
    "((</w>": 13796,
    "().</w>": 41737,
    "()</w>": 8475,
    "(*": 48004,
    "(*</w>": 39575,
    "(+</w>": 12903,
    "(-</w>": 20228,
    "(...</w>": 45159,
    "(.</w>": 43055,
    "(:</w>": 8528,
    "(;</w>": 23983,
    "(</w>": 263,
    "(?)</w>": 22885,
    "(@</w>": 2181,
    "(Â£</w>": 33987,
    "(Â©</w>": 44886,
    "(ðŁĵ·:</w>": 34610,
    "(ðŁĵ·</w>": 37999,
    "(ðŁĵ¸:</w>": 44422,
    "(ðŁĵ¸</w>": 45204,
    ")": 8,
    ")!!</w>": 47518,
    ")!</w>": 7805,
    ")\"</w>": 13046,
    ")#</w>": 39981,
    ")'</w>": 23613,
    ")(</w>": 27956,
    "))": 13720,
    "))))": 42911,
    "))))</w>": 34181,
    ")))</w>": 18305,
    "))</w>": 5167,
    "),</w>": 2361,
    ")-</w>": 19034,
    ")...</w>": 15274,
    ")..</w>": 41822,
    ").</w>": 1818,
    ")/</w>": 26616,
    "):</w>": 4143,
    ");</w>": 19686,
    ")</w>": 264,
    ")?</w>": 18765,
    ")@</w>": 41928,
    ")_/": 45028,
    ")_/Â¯</w>": 45781,
    ")âĢ¦</w>": 41844,
    "*": 9,
    "*)</w>": 30956,
    "**": 9825,
    "****": 21326,
    "********": 42974,
    "*****</w>": 43571,
    "****</w>": 25167,
    "***</w>": 7829,
    "**</w>": 4441,
    "*,</w>": 41895,
    "*-*</w>": 23568,
    "*.</w>": 31304,
    "*</w>": 265,
    "*_*</w>": 44535,
    "+": 10,
    "+)</w>": 34810,
    "++": 47298,
    "+++</w>": 35986,
    "++</w>": 19056,
    "+,</w>": 35885,
    "+.</w>": 25238,
    "+/-</w>": 47614,
    "+</w>": 266,
    ",": 11,
    ",\"</w>": 3823,
    ",#</w>": 11215,
    ",&</w>": 26905,
    ",'</w>": 10599,
    ",)</w>": 44493,
    ",,": 21340,
    ",,,,</w>": 33225,
    ",,,</w>": 14811,
    ",,</w>": 8844,
    ",-</w>": 29821,
    ",...</w>": 20365,
    ",.</w>": 41277,
    ",</w>": 267,
    ",@</w>": 13975,
    ",âĢ¦</w>": 14601,
    "-": 12,
    "-\"</w>": 18646,
    "-#</w>": 10151,
    "-$</w>": 24946,
    "-'</w>": 28010,
    "-(</w>": 33345,
    "-)</w>": 3535,
    "-*</w>": 21527,
    "--": 2154,
    "----": 5753,
    "--------": 11772,
    "----------------": 23122,
    "----</w>": 30164,
    "----></w>": 35999,
    "---</w>": 11079,
    "---></w>": 14518,
    "--</w>": 2432,
    "--></w>": 6422,
    "-->></w>": 47252,
    "-.-</w>": 32765,
    "-...</w>": 43147,
    "-.</w>": 44040,
    "-</w>": 268,
    "-></w>": 5081,
    "-@</w>": 10087,
    "-_-</w>": 27227,
    "-__": 42718,
    "-âĢ¦</w>": 30047,
    ".": 13,
    ".!!</w>": 37805,
    ".!</w>": 14030,
    ".\"": 18650,
    ".\"-</w>": 21234,
    ".\"</w>": 1081,
    ".\"âĢĶ</w>": 48703,
    ".#</w>": 5014,
    ".'\"</w>": 41558,
    ".''</w>": 49379,
    ".'</w>": 5938,
    ".(</w>": 22294,
    ".)</w>": 5376,
    ".*</w>": 26145,
    ".,</w>": 5276,
    ".-</w>": 12481,
    "..": 608,
    "..!!</w>": 23707,
    "..!</w>": 17994,
    "..\"</w>": 15229,
    "..#</w>": 15735,
    "..,</w>": 47143,
    "...": 3002,
    "...!!!</w>": 38351,
    "...!!</w>": 39915,
    "...!</w>": 16860,
    "...\"</w>": 5240,
    "...#</w>": 8195,
    "...&</w>": 44979,
    "...'</w>": 23167,
    "...(</w>": 37981,
    "...)</w>": 14040,
    "...,</w>": 42717,
    "....": 2386,
    "....\"</w>": 26689,
    "....#</w>": 20346,
    ".....": 34151,
    ".....#</w>": 38867,
    "........": 8246,
    "................": 24855,
    "............</w>": 42965,
    "...........</w>": 35008,
    "..........</w>": 25526,
    ".........</w>": 19881,
    "........</w>": 14720,
    ".......</w>": 9917,
    "......</w>": 5590,
    ".....</w>": 3104,
    "....</w>": 1390,
    "....@</w>": 29790,
    "...:</w>": 34570,
    "...</w>": 678,
    "...?</w>": 16388,
    "...@</w>": 12672,
    "..</w>": 852,
    "..?</w>": 23875,
    "..@</w>": 21124,
    "./</w>": 31975,
    ".:</w>": 15811,
    ".;</w>": 47596,
    ".</w>": 269,
    ".<</w>": 29442,
    ".?</w>": 29294,
    ".@</w>": 1230,
    ".]</w>": 33511,
    ".~</w>": 42651,
    ".âĢ¦</w>": 18047,
    ".âĿ¤ï¸ı</w>": 39085,
    ".âłĢ</w>": 30097,
    ".ðŁĺĤ</w>": 46580,
    "/": 14,
    "/#</w>": 13217,
    "/$</w>": 36266,
    "/-</w>": 19811,
    "/.</w>": 39382,
    "//": 15348,
    "////": 46271,
    "///</w>": 22734,
    "//</w>": 3502,
    "/</w>": 270,
    "/@</w>": 8216,
    "0": 15,
    "0</w>": 271,
    "1": 16,
    "1</w>": 272,
    "2": 17,
    "2</w>": 273,
    "3": 18,
    "3</w>": 274,
    "4": 19,
    "4</w>": 275,
    "5": 20,
    "5</w>": 276,
    "6": 21,
    "6</w>": 277,
    "7": 22,
    "7</w>": 278,
    "8": 23,
    "8</w>": 279,
    "9": 24,
    "9</w>": 280,
    ":": 25,
    ":\"": 29498,
    ":\")</w>": 46432,
    ":\"</w>": 12089,
    ":#</w>": 26625,
    ":$</w>": 33769,
    ":'": 8017,
    ":'(</w>": 21250,
    ":')</w>": 10701,
    ":'</w>": 23851,
    ":((</w>": 42496,
    ":(</w>": 5965,
    ":)": 11070,
    ":))))</w>": 42339,
    ":)))</w>": 21840,
    ":))</w>": 10164,
    ":).</w>": 39010,
    ":)</w>": 1408,
    ":*</w>": 12617,
    ":-": 13021,
    ":-(</w>": 25137,
    ":-)</w>": 4223,
    ":-</w>": 10323,
    ":...</w>": 42140,
    "://</w>": 12441,
    ":/</w>": 13604,
    "::": 33077,
    ":::</w>": 43818,
    "::</w>": 9788,
    ":</w>": 281,
    ":></w>": 39677,
    ":@</w>": 14339,
    ":]</w>": 43486,
    ":|</w>": 45986,
    ":âĢ¦</w>": 22365,
    ";": 26,
    ";))</w>": 41873,
    ";)</w>": 3661,
    ";-": 35657,
    ";-)</w>": 10475,
    ";;": 34824,
    ";;</w>": 24492,
    ";</w>": 282,
    "<": 27,
    "<-</w>": 47280,
    "</</w>": 34308,
    "<<": 24588,
    "<</w>": 283,
    "<<</w>": 16482,
    "<<<</w>": 35054,
    "<|endoftext|>": 49407,
    "<|startoftext|>": 49406,
    "=": 28,
    "=))</w>": 39587,
    "=)</w>": 17840,
    "=</w>": 284,
    "==": 11748,
    "====": 21734,
    "========": 38952,
    "==></w>": 29688,
    "=></w>": 9714,
    ">": 29,
    ">.<</w>": 38507,
    ">:</w>": 36196,
    "></w>": 285,
    "><</w>": 28015,
    ">>": 8270,
    ">></w>": 2988,
    ">>></w>": 6395,
    ">>>>": 18461,
    ">>>></w>": 18435,
    ">>>>></w>": 32972,
    ">>>>>></w>": 48947,
    ">>>>>>>>": 41947,
    ">_": 44144,
    "?": 30,
    "?!": 9785,
    "?!!</w>": 25342,
    "?!\"</w>": 29315,
    "?!</w>": 2835,
    "?!?!</w>": 16349,
    "?!?!?!</w>": 49084,
    "?!?!?</w>": 37619,
    "?!?</w>": 11395,
    "?\"</w>": 3283,
    "?#</w>": 24018,
    "?'</w>": 13610,
    "?)</w>": 9626,
    "?,</w>": 41628,
    "?...</w>": 22641,
    "?..</w>": 43905,
    "?.</w>": 41251,
    "?:</w>": 21067,
    "?</w>": 286,
    "??": 5195,
    "??!!</w>": 43219,
    "??!</w>": 37341,
    "??\"</w>": 44996,
    "??</w>": 2197,
    "???": 40017,
    "???</w>": 3824,
    "????": 15936,
    "????</w>": 10362,
    "?????</w>": 21370,
    "??????</w>": 34589,
    "????????": 45091,
    "?@</w>": 29258,
    "?ðŁ¤Ķ</w>": 47928,
    "@": 31,
    "@#</w>": 39397,
    "@.</w>": 43730,
    "@/</w>": 28639,
    "@</w>": 287,
    "@@</w>": 30314,
    "@_</w>": 2692,
    "@__</w>": 17042,
    "@___</w>": 48308,
    "A": 32,
    "A</w>": 288,
    "B": 33,
    "B</w>": 289,
    "C": 34,
    "C</w>": 290,
    "D": 35,
    "D</w>": 291,
    "E": 36,
    "E</w>": 292,
    "F": 37,
    "F</w>": 293,
    "G": 38,
    "G</w>": 294,
    "H": 39,
    "H</w>": 295,
    "I": 40,
    "I</w>": 296,
    "J": 41,
    "J</w>": 297,
    "K": 42,
    "K</w>": 298,
    "L": 43,
    "L</w>": 299,
    "M": 44,
    "M</w>": 300,
    "N": 45,
    "N</w>": 301,
    "O": 46,
    "O</w>": 302,
    "P": 47,
    "P</w>": 303,
    "Q": 48,
    "Q</w>": 304,
    "R": 49,
    "R</w>": 305,
    "S": 50,
    "S</w>": 306,
    "T": 51,
    "T</w>": 307,
    "U": 52,
    "U</w>": 308,
    "V": 53,
    "V</w>": 309,
    "W": 54,
    "W</w>": 310,
    "X": 55,
    "X</w>": 311,
    "Y": 56,
    "Y</w>": 312,
    "Z": 57,
    "Z</w>": 313,
    "[": 58,
    "[#</w>": 11115,
    "[...": 39975,
    "[...]</w>": 43790,
    "[</w>": 314,
    "[@</w>": 15148,
    "[]</w>": 22240,
    "\\": 59,
    "\\'</w>": 41239,
    "\\</w>": 315,
    "]": 60,
    "]\"</w>": 39434,
    "],</w>": 34067,
    "].</w>": 26262,
    "]:</w>": 21641,
    "]</w>": 316,
    "][#</w>": 39009,
    "][</w>": 29329,
    "^": 61,
    "^)</w>": 30720,
    "^-": 43516,
    "^.": 31552,
    "^.^</w>": 35791,
    "^</w>": 317,
    "^^": 34454,
    "^^</w>": 9064,
    "^_": 14423,
    "^_^</w>": 15995,
    "_": 62,
    "_'</w>": 44701,
    "_(</w>": 36951,
    "_)</w>": 37393,
    "_*</w>": 36237,
    "_,</w>": 31417,
    "_-</w>": 23193,
    "_.</w>": 26841,
    "_/": 37647,
    "_:</w>": 13109,
    "_</w>": 318,
    "__": 2355,
    "__:</w>": 47043,
    "__</w>": 3838,
    "___": 43812,
    "___</w>": 13530,
    "____": 4727,
    "____</w>": 25350,
    "_____</w>": 38803,
    "________": 9549,
    "________________": 20115,
    "`": 63,
    "`</w>": 319,
    "a": 64,
    "a</w>": 320,
    "aa": 1821,
    "aa</w>": 3894,
    "aaa": 14376,
    "aaa</w>": 9583,
    "aaaa": 6727,
    "aaaa</w>": 19336,
    "aaaaa</w>": 31095,
    "aaaaaa</w>": 44413,
    "aaaaaaaa": 23126,
    "aaaah</w>": 49151,
    "aaah</w>": 35856,
    "aaay</w>": 37846,
    "aab</w>": 34108,
    "aac": 23251,
    "aac</w>": 11346,
    "aad": 20464,
    "aad</w>": 35894,
    "aaf": 37638,
    "aaf</w>": 31534,
    "aag": 42174,
    "aah</w>": 28990,
    "aaj": 28727,
    "aaj</w>": 43411,
    "aak": 37739,
    "aal": 22268,
    "aal</w>": 30208,
    "aali": 27896,
    "aaliyah</w>": 46577,
    "aam": 12943,
    "aam</w>": 22775,
    "aama": 45018,
    "aamaadmi": 45563,
    "aamaadmiparty</w>": 46406,
    "aamir</w>": 27456,
    "aan": 20705,
    "aan</w>": 13426,
    "aand": 38054,
    "aap": 12023,
    "aap</w>": 12052,
    "aapl</w>": 34516,
    "aar": 4695,
    "aar</w>": 13234,
    "aard": 46932,
    "aaron": 13948,
    "aaron</w>": 7709,
    "aas": 28542,
    "aas</w>": 32205,
    "aat": 34018,
    "aat</w>": 35004,
    "aau</w>": 35426,
    "aay": 38281,
    "aay</w>": 40249,
    "aaz</w>": 26770,
    "ab": 596,
    "ab</w>": 3937,
    "aba": 44204,
    "aba</w>": 11102,
    "abad": 33444,
    "abad</w>": 7155,
    "aban": 41662,
    "aband": 8595,
    "abandon</w>": 28805,
    "abandoned</w>": 11227,
    "abar": 17860,
    "abar</w>": 39805,
    "abas": 25402,
    "abay</w>": 43542,
    "abb": 38954,
    "abb</w>": 38297,
    "abba</w>": 30870,
    "abbas": 37494,
    "abbas</w>": 24412,
    "abbey": 31927,
    "abbey</w>": 10132,
    "abbie</w>": 39949,
    "abbo": 13536,
    "abbot</w>": 44046,
    "abbott": 43737,
    "abbott</w>": 15649,
    "abbrevi": 44843,
    "abby": 30586,
    "abby</w>": 14694,
    "abc": 13137,
    "abc</w>": 5334,
    "abcnews</w>": 31566,
    "abd</w>": 44093,
    "abdel": 46511,
    "abdomin": 35335,
    "abdominal</w>": 39328,
    "abdu": 13361,
    "abduc": 17884,
    "abducted</w>": 31520,
    "abduction</w>": 36984,
    "abdul": 14227,
    "abdul</w>": 15593,
    "abdullah</w>": 21317,
    "abe": 15856,
    "abe</w>": 12734,
    "abee</w>": 36037,
    "abel": 31938,
    "abel</w>": 25318,
    "abella</w>": 46156,
    "aben": 40865,
    "aber": 7828,
    "aber</w>": 41867,
    "aberdeen": 30539,
    "aberdeen</w>": 17236,
    "abh": 27484,
    "abh</w>": 33649,
    "abhcosmetics</w>": 49189,
    "abhi": 18113,
    "abhin": 44045,
    "abhishek</w>": 44502,
    "abi": 16867,
    "abi</w>": 14161,
    "abia</w>": 48604,
    "abide</w>": 49163,
    "abig": 20863,
    "abigail</w>": 25686,
    "abil": 21135,
    "abilities</w>": 8724,
    "ability": 35146,
    "ability</w>": 3024,
    "abit</w>": 48668,
    "ablanc": 33716,
    "able": 10102,
    "able</w>": 863,
    "abled</w>": 10655,
    "ableg</w>": 24055,
    "ables</w>": 8486,
    "ableton</w>": 47169,
    "ably</w>": 6748,
    "abnormal</w>": 40934,
    "abo": 2889,
    "abo</w>": 21861,
    "aboard</w>": 11661,
    "abol": 31768,
    "abolic</w>": 46827,
    "abolish</w>": 47403,
    "aboo</w>": 42433,
    "abor": 8416,
    "aboriginal</w>": 20422,
    "abortion</w>": 12336,
    "abortions</w>": 43218,
    "aboss</w>": 46401,
    "abou": 36455,
    "abou</w>": 44053,
    "abound</w>": 41037,
    "abour</w>": 46637,
    "about": 20204,
    "about</w>": 781,
    "abouts</w>": 36339,
    "above": 35019,
    "above</w>": 4348,
    "aboy</w>": 37077,
    "abpoli</w>": 44779,
    "abq</w>": 38767,
    "abr": 44932,
    "abra": 10694,
    "abra</w>": 35087,
    "abraham": 40623,
    "abraham</w>": 15869,
    "abram": 33255,
    "abrams</w>": 29852,
    "abre": 22472,
    "abre</w>": 46756,
    "abri": 28605,
    "abridged</w>": 45333,
    "abroad</w>": 11253,
    "abru": 46295,
    "abs": 18431,
    "abs</w>": 11109,
    "absc": 25389,
    "abscbn": 44260,
    "abscbn</w>": 45810,
    "absen": 32453,
    "absence</w>": 19240,
    "absent</w>": 30363,
    "absol": 4624,
    "absolu": 7055,
    "absolut": 4666,
    "absolute</w>": 7501,
    "absolutely</w>": 4703,
    "absor": 14303,
    "absorb</w>": 35806,
    "absorbed</w>": 45059,
    "absorbing</w>": 46412,
    "absorption</w>": 42210,
    "abstr": 7530,
    "abstract": 23885,
    "abstract</w>": 10197,
    "abstractart</w>": 31170,
    "abstraction</w>": 47696,
    "abstracts</w>": 40065,
    "absur": 21639,
    "absurd</w>": 29757,
    "abt</w>": 9850,
    "abu": 9167,
    "abu</w>": 11787,
    "abud": 20180,
    "abudha": 21450,
    "abudhabi</w>": 25256,
    "abuja</w>": 23371,
    "abun": 20544,
    "abundance</w>": 23236,
    "abundant</w>": 31611,
    "abur": 23377,
    "aburger</w>": 46660,
    "abuse</w>": 7678,
    "abused</w>": 23855,
    "abuses</w>": 37132,
    "abusing</w>": 36558,
    "abusive</w>": 26858,
    "abv</w>": 34172,
    "aby": 16342,
    "aby</w>": 31378,
    "abyss</w>": 33632,
    "abz</w>": 42292,
    "ac": 546,
    "ac</w>": 2816,
    "aca</w>": 9213,
    "acab": 41388,
    "acacia</w>": 44047,
    "acad</w>": 32537,
    "acade": 2892,
    "academia</w>": 22662,
    "academic": 31178,
    "academic</w>": 7935,
    "academics</w>": 26417,
    "academies</w>": 42569,
    "academy": 29968,
    "academy</w>": 4041,
    "acadi": 41455,
    "acadia</w>": 49236,
    "acam": 26172,
    "acan": 42227,
    "acan</w>": 26318,
    "acap": 32357,
    "acar": 22232,
    "acare</w>": 16961,
    "acc": 26805,
    "acc</w>": 9318,
    "acca</w>": 30883,
    "acce": 8564,
    "acceler": 10161,
    "accelerate</w>": 23619,
    "accelerated</w>": 38513,
    "accelerating</w>": 41821,
    "acceleration</w>": 39387,
    "accelerator</w>": 25261,
    "accent": 28110,
    "accent</w>": 18931,
    "accents</w>": 31738,
    "accenture</w>": 41853,
    "accep": 4616,
    "accept": 16447,
    "accept</w>": 9338,
    "acceptable</w>": 14209,
    "acceptance</w>": 17090,
    "accepted</w>": 9159,
    "accepting</w>": 12855,
    "accepts</w>": 22338,
    "access": 7596,
    "access</w>": 3822,
    "accessi": 10787,
    "accessibility</w>": 23407,
    "accessible</w>": 13977,
    "accessing</w>": 46339,
    "accessories</w>": 10220,
    "accessory</w>": 20417,
    "acci": 4263,
    "acci</w>": 33943,
    "accident</w>": 6608,
    "accidental</w>": 24895,
    "accidentally</w>": 11061,
    "accidents</w>": 22072,
    "acclaimed</w>": 21172,
    "acco</w>": 44730,
    "accol": 33858,
    "accolades</w>": 46731,
    "accom": 23658,
    "accommo": 34495,
    "accommod": 14386,
    "accommodate</w>": 34708,
    "accommodation</w>": 18066,
    "accommodations</w>": 45536,
    "accomp": 24985,
    "accompan": 14746,
    "accompanied</w>": 20715,
    "accompany</w>": 34142,
    "accompanying</w>": 38179,
    "accompli": 10205,
    "accomplish</w>": 25542,
    "accomplished</w>": 16462,
    "accomplishment</w>": 26100,
    "accomplishments</w>": 24965,
    "accor": 4182,
    "accord": 34293,
    "accord</w>": 28513,
    "according</w>": 4717,
    "accordingly</w>": 35535,
    "accordion</w>": 48760,
    "accoun": 3081,
    "account": 18424,
    "account</w>": 4684,
    "accountability</w>": 19377,
    "accountable</w>": 24216,
    "accountant</w>": 31026,
    "accountants</w>": 37222,
    "accounted</w>": 43951,
    "accounting</w>": 14805,
    "accounts</w>": 9974,
    "accra</w>": 31900,
    "accred": 17451,
    "accreditation</w>": 27015,
    "accredited</w>": 27647,
    "acct</w>": 45569,
    "accu": 5618,
    "accumul": 19275,
    "accumulation</w>": 37112,
    "accur": 6551,
    "accuracy</w>": 18423,
    "accurate</w>": 8858,
    "accurately</w>": 24206,
    "accusations</w>": 33615,
    "accuse</w>": 39414,
    "accused</w>": 9434,
    "accuses</w>": 27496,
    "accusing</w>": 41474,
    "acdc</w>": 45067,
    "ace": 2675,
    "ace</w>": 804,
    "acea</w>": 35219,
    "aceae</w>": 38153,
    "acele": 40868,
    "aceous</w>": 33610,
    "acer": 37990,
    "acer</w>": 25809,
    "aces</w>": 5725,
    "acet": 28735,
    "acf</w>": 38389,
    "ach": 972,
    "ach</w>": 987,
    "acha</w>": 22686,
    "acharya</w>": 45780,
    "achat</w>": 32706,
    "ache": 27771,
    "ache</w>": 7214,
    "ached</w>": 17048,
    "acher": 38442,
    "acher</w>": 17936,
    "achers</w>": 25051,
    "aches</w>": 14823,
    "achi": 3264,
    "achi</w>": 9087,
    "achiev": 8160,
    "achieve": 14798,
    "achieve</w>": 8175,
    "achieved</w>": 12359,
    "achievement</w>": 8245,
    "achievements</w>": 16114,
    "achiever</w>": 46286,
    "achievers</w>": 44544,
    "achieves</w>": 40123,
    "achieving</w>": 16120,
    "achilles</w>": 33327,
    "achim</w>": 42335,
    "aching</w>": 12864,
    "acho</w>": 33130,
    "achs</w>": 41195,
    "aci": 4359,
    "aci</w>": 34100,
    "acia</w>": 30163,
    "acial</w>": 32422,
    "acid": 35474,
    "acid</w>": 10085,
    "acidity</w>": 48800,
    "acids</w>": 27751,
    "acies</w>": 20162,
    "acin": 39442,
    "acing</w>": 9442,
    "acio</w>": 26202,
    "acion": 44965,
    "acion</w>": 24968,
    "acional</w>": 26435,
    "aciones</w>": 35832,
    "acious</w>": 16020,
    "acity</w>": 7511,
    "aciÃ³n</w>": 38175,
    "ack": 877,
    "ack</w>": 725,
    "acked</w>": 5698,
    "acker": 31201,
    "acker</w>": 7940,
    "ackeray</w>": 41843,
    "acki</w>": 42857,
    "acking</w>": 5515,
    "ackles</w>": 28503,
    "acknow": 13563,
    "acknowle": 18100,
    "acknowledge</w>": 25209,
    "acknowledged</w>": 35913,
    "acknowledges</w>": 49083,
    "acknowledging</w>": 45645,
    "acks</w>": 3858,
    "acl": 47593,
    "acl</w>": 23073,
    "acle</w>": 6504,
    "acles</w>": 34164,
    "aclu</w>": 37354,
    "acm</w>": 39317,
    "acmilan</w>": 36500,
    "acne</w>": 24195,
    "aco": 9463,
    "aco</w>": 8800,
    "acol": 17431,
    "acollege</w>": 43468,
    "acom": 17224,
    "acom</w>": 22342,
    "acon": 11621,
    "acon</w>": 11571,
    "aconf</w>": 38851,
    "acons</w>": 31599,
    "acor": 22076,
    "acorn</w>": 37537,
    "acos</w>": 39943,
    "acosta</w>": 31994,
    "acou": 8794,
    "acoun": 31295,
    "acounty</w>": 45449,
    "acoustic</w>": 10616,
    "acoustics</w>": 43873,
    "acp</w>": 19627,
    "acqu": 7946,
    "acquainted</w>": 40713,
    "acqui": 12194,
    "acquire</w>": 21576,
    "acquired</w>": 15932,
    "acquires</w>": 27376,
    "acquiring</w>": 42785,
    "acquis": 14207,
    "acquisition</w>": 16543,
    "acquisitions</w>": 39649,
    "acr</w>": 43648,
    "acre": 26749,
    "acre</w>": 9493,
    "acres</w>": 11630,
    "acro": 21060,
    "acrob": 40891,
    "acron": 37770,
    "across</w>": 2500,
    "acrosse</w>": 40979,
    "acruz</w>": 40455,
    "acry": 10440,
    "acrylic</w>": 12252,
    "acs</w>": 11782,
    "act": 10305,
    "act</w>": 1393,
    "acted</w>": 10971,
    "acti": 4786,
    "acting</w>": 6319,
    "action": 12493,
    "action</w>": 1816,
    "actions</w>": 6271,
    "activ": 3430,
    "activate</w>": 26737,
    "activated</w>": 22249,
    "activation</w>": 26769,
    "active": 19009,
    "active</w>": 4046,
    "actively</w>": 18645,
    "activi": 7230,
    "activism</w>": 20117,
    "activist</w>": 10850,
    "activists</w>": 12649,
    "activities</w>": 6514,
    "activity</w>": 6206,
    "actment</w>": 44807,
    "acton": 36167,
    "acton</w>": 36697,
    "actonclimate</w>": 43797,
    "actor": 12181,
    "actor</w>": 4035,
    "actors</w>": 9255,
    "actorslife</w>": 25117,
    "actorvijay</w>": 34033,
    "actress</w>": 5805,
    "actresses</w>": 33639,
    "acts</w>": 6816,
    "actu": 2375,
    "actual</w>": 7488,
    "actually</w>": 2955,
    "acu": 9204,
    "acu</w>": 48475,
    "aculture</w>": 38145,
    "acup": 30869,
    "acup</w>": 27278,
    "acupuncture</w>": 40043,
    "acur": 44719,
    "acura</w>": 30120,
    "acus</w>": 33710,
    "acute</w>": 19734,
    "acy": 18717,
    "acy</w>": 2356,
    "ad": 594,
    "ad</w>": 680,
    "ada": 25785,
    "ada</w>": 1886,
    "adaily</w>": 47254,
    "adal": 46646,
    "adam": 6037,
    "adam</w>": 4944,
    "adamlambert</w>": 27659,
    "adams</w>": 7942,
    "adan</w>": 41802,
    "adani</w>": 37499,
    "adap": 6341,
    "adapt</w>": 22666,
    "adaptation</w>": 16566,
    "adapted</w>": 26657,
    "adapter</w>": 21839,
    "adapting</w>": 44120,
    "adaptive</w>": 28672,
    "adar": 27702,
    "adar</w>": 32681,
    "adas</w>": 23250,
    "adata</w>": 39500,
    "aday": 31367,
    "aday</w>": 10280,
    "adays</w>": 24337,
    "adb</w>": 45630,
    "adc</w>": 38201,
    "add": 19408,
    "add</w>": 3536,
    "addams</w>": 38912,
    "added</w>": 4149,
    "adder</w>": 47557,
    "addi</w>": 36378,
    "addic": 5709,
    "addict</w>": 14614,
    "addicted</w>": 16275,
    "addiction</w>": 11751,
    "addictive</w>": 29638,
    "addicts</w>": 29997,
    "adding</w>": 8676,
    "addis</w>": 43911,
    "addison</w>": 32369,
    "additi": 26927,
    "addition</w>": 6698,
    "additional</w>": 10666,
    "additions</w>": 22575,
    "additive</w>": 48546,
    "addo</w>": 40001,
    "address</w>": 5834,
    "addressed</w>": 20817,
    "addresses</w>": 12702,
    "addressing</w>": 10594,
    "adds</w>": 9944,
    "addy</w>": 24746,
    "ade": 2194,
    "ade</w>": 1928,
    "adecides</w>": 46374,
    "aded</w>": 9994,
    "adee</w>": 47054,
    "adel": 4434,
    "adel</w>": 27308,
    "adelaide": 38193,
    "adelaide</w>": 11611,
    "adele": 42843,
    "adele</w>": 21220,
    "adelrey</w>": 43627,
    "ademy</w>": 49123,
    "aden": 28669,
    "aden</w>": 28688,
    "adena</w>": 23648,
    "adequ": 18232,
    "adequate</w>": 22281,
    "ader</w>": 21365,
    "adero</w>": 49185,
    "aders</w>": 27672,
    "ades</w>": 5793,
    "adh</w>": 42301,
    "adhd</w>": 32649,
    "adhe": 21175,
    "adhesive</w>": 38429,
    "adi": 2486,
    "adi</w>": 8779,
    "adia</w>": 26874,
    "adic</w>": 36780,
    "adid": 8086,
    "adidas": 22396,
    "adidas</w>": 9589,
    "adidasoriginals</w>": 48575,
    "adies</w>": 45834,
    "adifference</w>": 37217,
    "adilla</w>": 41167,
    "ading</w>": 15000,
    "adio</w>": 15060,
    "adirond": 36843,
    "adish</w>": 49009,
    "adity": 28596,
    "aditya</w>": 37186,
    "adityanath</w>": 44437,
    "adjac": 32517,
    "adjacent</w>": 33836,
    "adjec": 45512,
    "adju": 16413,
    "adjun": 45995,
    "adjust": 13784,
    "adjust</w>": 28073,
    "adjustable</w>": 20476,
    "adjusted</w>": 30515,
    "adjusting</w>": 41132,
    "adjustment</w>": 36081,
    "adjustments</w>": 36331,
    "adl</w>": 49351,
    "adler</w>": 30222,
    "adm": 9892,
    "adm</w>": 33604,
    "admi": 11666,
    "admin</w>": 12528,
    "admini": 6434,
    "administr": 12174,
    "administration</w>": 9502,
    "administrative</w>": 22424,
    "administrator</w>": 22603,
    "administrators</w>": 36123,
    "admins</w>": 49297,
    "admir": 17031,
    "admiral</w>": 21013,
    "admiration</w>": 39569,
    "admire</w>": 17791,
    "admired</w>": 36103,
    "admirer</w>": 48344,
    "admiring</w>": 29835,
    "admission</w>": 11315,
    "admissions</w>": 22463,
    "admit</w>": 13769,
    "admits</w>": 16332,
    "admitted</w>": 20427,
    "admitting</w>": 46148,
    "adn</w>": 40339,
    "adnan</w>": 42037,
    "ado": 4775,
    "ado</w>": 2933,
    "adobe": 29256,
    "adobe</w>": 16484,
    "adog</w>": 44913,
    "adol": 33512,
    "adole": 22704,
    "adolescent</w>": 36793,
    "adolescents</w>": 45656,
    "adolf</w>": 41179,
    "adon": 25907,
    "adona</w>": 48419,
    "adop": 4183,
    "adopt": 16441,
    "adopt</w>": 11159,
    "adoptable</w>": 36905,
    "adoptdont": 19674,
    "adoptdontshop</w>": 20089,
    "adopted</w>": 12538,
    "adopting</w>": 30158,
    "adoption</w>": 11544,
    "adopts</w>": 40853,
    "ador": 4992,
    "ador</w>": 9162,
    "adora</w>": 40031,
    "adorable</w>": 6298,
    "adoration</w>": 46781,
    "adore</w>": 15502,
    "adored</w>": 49233,
    "adores</w>": 30290,
    "adorned</w>": 44953,
    "ados</w>": 20079,
    "adox</w>": 32188,
    "adp</w>": 44426,
    "adr</w>": 46189,
    "adren": 24204,
    "adrenaline</w>": 35552,
    "adri": 5935,
    "adrian": 25012,
    "adrian</w>": 13163,
    "adriana</w>": 41363,
    "adrid</w>": 26562,
    "adrien</w>": 47469,
    "adrienne</w>": 40081,
    "ads</w>": 2485,
    "adu": 16882,
    "adu</w>": 24446,
    "adukone</w>": 30511,
    "adul": 7222,
    "adult": 42209,
    "adult</w>": 7115,
    "adulthood</w>": 40964,
    "adults</w>": 9391,
    "adv": 1647,
    "adv</w>": 21018,
    "advan": 33411,
    "advance": 27291,
    "advance</w>": 7022,
    "advanced</w>": 7465,
    "advancement</w>": 35437,
    "advances</w>": 15852,
    "advancing</w>": 21355,
    "advani</w>": 48189,
    "advant": 7017,
    "advantage</w>": 8573,
    "advantaged</w>": 38361,
    "advantages</w>": 23506,
    "adven": 41670,
    "advent": 3071,
    "advent</w>": 15199,
    "adventcalendar</w>": 43492,
    "adventur": 29627,
    "adventure": 17251,
    "adventure</w>": 4377,
    "adventurer</w>": 48098,
    "adventures</w>": 7941,
    "adventurous</w>": 31179,
    "adver": 4806,
    "adverse</w>": 30348,
    "adversity</w>": 32516,
    "advert</w>": 19080,
    "adverti": 5682,
    "advertise</w>": 31473,
    "advertised</w>": 38987,
    "advertisement</w>": 18713,
    "advertiser</w>": 41829,
    "advertisers</w>": 45472,
    "advertising</w>": 8158,
    "adverts</w>": 44306,
    "advice</w>": 4973,
    "advis": 4634,
    "advise</w>": 25962,
    "advised</w>": 23196,
    "adviser</w>": 20367,
    "advisers</w>": 40984,
    "advises</w>": 42761,
    "advising</w>": 39648,
    "advisor</w>": 12380,
    "advisors</w>": 23197,
    "advisory</w>": 10224,
    "advoc": 6657,
    "advocacy</w>": 14443,
    "advocate</w>": 12044,
    "advocates</w>": 17757,
    "adwords</w>": 48343,
    "ady": 41446,
    "ady</w>": 8781,
    "ae": 5548,
    "ae</w>": 4542,
    "aea</w>": 37048,
    "aed</w>": 26912,
    "aege": 42304,
    "ael": 41533,
    "ael</w>": 43340,
    "aen": 43085,
    "aer": 10195,
    "aeri": 27685,
    "aerial": 44866,
    "aerial</w>": 12440,
    "aero": 10196,
    "aero</w>": 25026,
    "aerob": 42824,
    "aeron": 37286,
    "aeronau": 42816,
    "aerop": 27735,
    "aerosmith</w>": 43253,
    "aerospace</w>": 20530,
    "aes": 10617,
    "aes</w>": 35677,
    "aest</w>": 40694,
    "aesthe": 21181,
    "aesthetic</w>": 16179,
    "aesthetics</w>": 29295,
    "aew</w>": 47108,
    "af": 702,
    "af</w>": 4391,
    "afa</w>": 24953,
    "afan": 47474,
    "afar": 41637,
    "afar</w>": 37866,
    "afb</w>": 27022,
    "afc": 29742,
    "afc</w>": 6571,
    "afcb</w>": 44276,
    "afcon</w>": 30019,
    "afd</w>": 44626,
    "afe": 30487,
    "afe</w>": 13912,
    "afer": 44707,
    "aff": 8849,
    "aff</w>": 14864,
    "affair</w>": 13998,
    "affairs</w>": 9830,
    "affe": 4556,
    "affect</w>": 11361,
    "affected</w>": 9715,
    "affecting</w>": 18448,
    "affection": 33780,
    "affection</w>": 28381,
    "affectionate</w>": 42578,
    "affects</w>": 17285,
    "affili": 12120,
    "affiliate</w>": 18652,
    "affiliated</w>": 37540,
    "affiliation</w>": 48377,
    "affinity</w>": 41451,
    "affir": 25343,
    "affirm": 42711,
    "affirm</w>": 48625,
    "affirmation</w>": 47495,
    "affl": 34036,
    "affleck</w>": 35584,
    "afford": 7951,
    "afford</w>": 13223,
    "affordability</w>": 44828,
    "affordable": 43944,
    "affordable</w>": 8926,
    "afg</w>": 33994,
    "afgh": 9029,
    "afghan</w>": 15919,
    "afghanistan</w>": 9836,
    "afi": 24074,
    "afi</w>": 31958,
    "afil": 27209,
    "afire</w>": 42010,
    "afirst</w>": 38601,
    "afl": 15132,
    "afl</w>": 14356,
    "aflo": 41959,
    "afm</w>": 38385,
    "afootball</w>": 41694,
    "afor": 43102,
    "afore": 41468,
    "afp</w>": 18311,
    "afraid</w>": 9474,
    "afri": 13888,
    "afric": 2136,
    "africa</w>": 3093,
    "african": 17471,
    "african</w>": 4736,
    "africans</w>": 26534,
    "afridi</w>": 37651,
    "afrika</w>": 45833,
    "afrin</w>": 45586,
    "afro": 16267,
    "afro</w>": 21795,
    "afs</w>": 48960,
    "aft</w>": 22693,
    "after": 2278,
    "after</w>": 953,
    "afterdark</w>": 48966,
    "afterlife</w>": 46790,
    "aftermath</w>": 20958,
    "afterno": 22330,
    "afternoon": 39035,
    "afternoon</w>": 2716,
    "afternoons</w>": 31631,
    "afterparty</w>": 35305,
    "afterwards</w>": 23911,
    "ag": 602,
    "ag</w>": 5241,
    "aga": 1050,
    "aga</w>": 4654,
    "again</w>": 1495,
    "against": 23838,
    "against</w>": 1601,
    "agame</w>": 46943,
    "agan": 42946,
    "agan</w>": 9178,
    "agar": 13199,
    "agar</w>": 17544,
    "agarwal</w>": 43117,
    "agas": 20430,
    "agate</w>": 25454,
    "agatha</w>": 43896,
    "agave</w>": 42671,
    "agawa</w>": 39433,
    "agazine</w>": 44942,
    "age": 4758,
    "age</w>": 805,
    "aged</w>": 3889,
    "ageing</w>": 25349,
    "agen": 10101,
    "agen</w>": 43696,
    "agencies</w>": 13887,
    "agency": 44885,
    "agency</w>": 6270,
    "agend": 48653,
    "agenda</w>": 8728,
    "agent": 21210,
    "agent</w>": 6576,
    "agents</w>": 10199,
    "agentsof": 37074,
    "agentsofshield</w>": 38801,
    "ager": 44847,
    "ager</w>": 10443,
    "agers</w>": 22123,
    "ages</w>": 2321,
    "agg</w>": 45482,
    "aggarwal</w>": 39386,
    "agger": 27836,
    "aggi": 36844,
    "aggie": 44244,
    "aggie</w>": 37618,
    "aggies</w>": 31047,
    "aggio</w>": 36685,
    "aggrav": 35203,
    "aggre": 10426,
    "aggreg": 41968,
    "aggregate</w>": 41318,
    "aggression</w>": 28900,
    "aggressive</w>": 16295,
    "aggressively</w>": 48667,
    "agh": 17917,
    "agh</w>": 14402,
    "aghan</w>": 31276,
    "agi": 24036,
    "agi</w>": 17645,
    "agic</w>": 37652,
    "agile</w>": 16276,
    "agility</w>": 32161,
    "aging</w>": 4336,
    "agio</w>": 41746,
    "agirl</w>": 35469,
    "agle": 37035,
    "agle</w>": 16702,
    "agles": 36374,
    "agles</w>": 22679,
    "aglia</w>": 46912,
    "agm</w>": 19162,
    "agn": 36474,
    "agna</w>": 43626,
    "agne": 29374,
    "agne</w>": 48303,
    "agnes</w>": 26213,
    "agno": 41540,
    "ago": 6276,
    "ago</w>": 1468,
    "agomez</w>": 27127,
    "agon": 26775,
    "agon</w>": 14901,
    "agony</w>": 36977,
    "agor": 38920,
    "agos</w>": 32657,
    "agov</w>": 34227,
    "agp</w>": 46048,
    "agr": 36639,
    "agra": 26660,
    "agra</w>": 29830,
    "agram</w>": 2447,
    "agre": 3180,
    "agreat": 37594,
    "agree</w>": 5953,
    "agreed</w>": 12774,
    "agreeing</w>": 40720,
    "agreement</w>": 8286,
    "agreements</w>": 25865,
    "agrees</w>": 17854,
    "agri": 20527,
    "agri</w>": 30326,
    "agricul": 7234,
    "agricultural</w>": 15440,
    "agriculture</w>": 9720,
    "agro": 33178,
    "agro</w>": 44589,
    "agron": 41314,
    "agroup</w>": 40099,
    "ags</w>": 16926,
    "agt</w>": 39681,
    "agu": 3922,
    "agu</w>": 36544,
    "agua</w>": 18482,
    "aguchi</w>": 49206,
    "ague</w>": 2095,
    "aguero</w>": 42964,
    "agues</w>": 7000,
    "aguil": 27946,
    "aguilar</w>": 44715,
    "ah": 1772,
    "ah</w>": 1288,
    "aha": 12082,
    "aha</w>": 8429,
    "ahah</w>": 38661,
    "ahaha</w>": 32423,
    "ahahaha</w>": 42620,
    "aham": 36036,
    "ahan": 45061,
    "ahan</w>": 19255,
    "ahar": 31038,
    "ahar</w>": 38760,
    "ahe": 27688,
    "ahead</w>": 3158,
    "ahem</w>": 39995,
    "ahh</w>": 13152,
    "ahhh</w>": 14769,
    "ahhhh</w>": 21054,
    "ahhhhh</w>": 36392,
    "ahi": 45349,
    "ahi</w>": 24154,
    "ahl</w>": 30433,
    "ahmad": 32167,
    "ahmad</w>": 16902,
    "ahmadi": 38656,
    "ahmadiyya</w>": 44865,
    "ahmed": 19491,
    "ahmed</w>": 12081,
    "ahmedabad</w>": 26966,
    "ahn</w>": 33405,
    "aho": 28114,
    "aho</w>": 38444,
    "ahora</w>": 43113,
    "ahouse</w>": 33197,
    "ahoy</w>": 38652,
    "ahs</w>": 16937,
    "ahu": 11908,
    "ahu</w>": 16515,
    "ai": 2014,
    "ai</w>": 2215,
    "aia</w>": 27046,
    "aib</w>": 34780,
    "aic": 29454,
    "aid": 13723,
    "aid</w>": 5182,
    "aida</w>": 33830,
    "aidan": 48814,
    "aidan</w>": 26945,
    "aide": 31558,
    "aide</w>": 9746,
    "aided</w>": 48707,
    "aiden</w>": 40020,
    "aides</w>": 49082,
    "aids</w>": 11759,
    "aig": 27295,
    "aig</w>": 46989,
    "aii</w>": 22478,
    "aik</w>": 42575,
    "aiken</w>": 46342,
    "ail": 1457,
    "ail</w>": 9154,
    "ailed</w>": 38919,
    "ailing</w>": 29999,
    "ails</w>": 27024,
    "aim": 6787,
    "aim</w>": 11255,
    "aime</w>": 39872,
    "aimed</w>": 20247,
    "aimee</w>": 36318,
    "aiming</w>": 21768,
    "aimo</w>": 36706,
    "aims</w>": 13326,
    "ain": 8326,
    "ain</w>": 2210,
    "aine": 48983,
    "aine</w>": 17634,
    "ains</w>": 27621,
    "aint": 29543,
    "aint</w>": 13099,
    "ainted</w>": 39933,
    "aioli</w>": 43949,
    "air": 1281,
    "air</w>": 1922,
    "aira": 35085,
    "aira</w>": 46444,
    "airasia</w>": 48020,
    "airbnb</w>": 23098,
    "airborne</w>": 22755,
    "airbus</w>": 15324,
    "aircraft</w>": 7706,
    "airdrop</w>": 38434,
    "aire</w>": 7682,
    "aired</w>": 21938,
    "aires</w>": 17034,
    "airfield</w>": 40525,
    "airforce</w>": 23511,
    "airing</w>": 20453,
    "airline</w>": 14847,
    "airlines</w>": 8929,
    "airmen</w>": 44499,
    "airplane</w>": 16451,
    "airplanes</w>": 33319,
    "airplay</w>": 47024,
    "airpollution</w>": 47362,
    "airport": 48337,
    "airport</w>": 3259,
    "airports</w>": 21543,
    "airs</w>": 18539,
    "airshow</w>": 27139,
    "airsoft</w>": 30134,
    "airspace</w>": 49280,
    "airstrikes</w>": 37220,
    "airtel</w>": 34784,
    "airtime</w>": 46617,
    "airwaves</w>": 43910,
    "airways</w>": 14299,
    "airy</w>": 44453,
    "ais": 7616,
    "ais</w>": 11393,
    "aise</w>": 30505,
    "aish": 21946,
    "aisha</w>": 40211,
    "aishwar": 29687,
    "aishwarya</w>": 44019,
    "aisle</w>": 26917,
    "ait": 25613,
    "ait</w>": 40814,
    "aj": 3990,
    "aj</w>": 6342,
    "aja": 42343,
    "aja</w>": 19633,
    "ajax</w>": 21933,
    "ajay": 22494,
    "ajay</w>": 28726,
    "ajaydevgn</w>": 35515,
    "aje": 48818,
    "aje</w>": 33315,
    "ajes</w>": 38791,
    "aji": 26102,
    "aji</w>": 21153,
    "ajit</w>": 42261,
    "ajith</w>": 24118,
    "ajo</w>": 26958,
    "aju": 36855,
    "ak": 819,
    "ak</w>": 1196,
    "aka": 19154,
    "aka</w>": 3412,
    "akaif</w>": 45736,
    "akan": 43678,
    "akan</w>": 38244,
    "akapoor</w>": 40064,
    "akarta</w>": 48603,
    "akb</w>": 41962,
    "akbar</w>": 27180,
    "ake": 10558,
    "ake</w>": 5776,
    "aked</w>": 6115,
    "aker": 14245,
    "aker</w>": 3074,
    "akers</w>": 5788,
    "akes</w>": 4764,
    "akest</w>": 46679,
    "akh": 14821,
    "akh</w>": 30660,
    "akhan</w>": 28158,
    "akhi": 41660,
    "akhilesh</w>": 48495,
    "akhtar</w>": 45458,
    "aki": 18173,
    "aki</w>": 6592,
    "akin": 24630,
    "akin</w>": 13601,
    "aking</w>": 1809,
    "akins</w>": 48568,
    "akira</w>": 34001,
    "akis</w>": 27732,
    "akistan</w>": 46221,
    "akley</w>": 39908,
    "ako": 44027,
    "ako</w>": 14541,
    "akon</w>": 47105,
    "akos</w>": 44659,
    "akrish": 37434,
    "akron</w>": 26115,
    "aks</w>": 2953,
    "aksh": 28226,
    "akshay": 21483,
    "akshay</w>": 38914,
    "akshaykumar</w>": 23624,
    "akshi</w>": 42634,
    "aku": 18151,
    "aku</w>": 20815,
    "aky</w>": 11977,
    "al": 526,
    "al</w>": 566,
    "ala": 12783,
    "ala</w>": 3449,
    "alab": 6365,
    "alabam": 45880,
    "alabama</w>": 8422,
    "alach": 24622,
    "alad": 23074,
    "aladdin</w>": 29951,
    "alai</w>": 47072,
    "alain</w>": 28999,
    "alam": 16612,
    "alam</w>": 16012,
    "alamo": 41922,
    "alamo</w>": 34632,
    "alan": 9563,
    "alan</w>": 5773,
    "alana</w>": 43405,
    "aland": 34304,
    "aland</w>": 6819,
    "alar": 34333,
    "alarm</w>": 11321,
    "alarming</w>": 37209,
    "alarms</w>": 31236,
    "alarts</w>": 31422,
    "alas": 7276,
    "alas</w>": 22412,
    "alaska</w>": 9562,
    "alaskan</w>": 33898,
    "alastair</w>": 42062,
    "alay": 30289,
    "alay</w>": 36450,
    "alaya</w>": 36397,
    "alb": 45248,
    "alba</w>": 25254,
    "alban": 10882,
    "albania</w>": 29170,
    "albanian</w>": 47721,
    "albans</w>": 44119,
    "albany</w>": 17359,
    "albat": 42797,
    "albeit</w>": 38984,
    "alber": 6413,
    "albert": 34174,
    "albert</w>": 9507,
    "alberta</w>": 11048,
    "alberto</w>": 22714,
    "albi": 18512,
    "albino</w>": 48062,
    "albion</w>": 24071,
    "albu": 2216,
    "album": 40712,
    "album</w>": 2431,
    "albums</w>": 10705,
    "albuquerque</w>": 31079,
    "alcat": 35361,
    "alche": 37909,
    "alchemist</w>": 38913,
    "alchemy</w>": 39501,
    "alco": 6848,
    "alco</w>": 45446,
    "alcohol</w>": 9426,
    "alcoholic</w>": 25098,
    "ald": 4539,
    "ald</w>": 2928,
    "alda</w>": 46440,
    "alde": 33114,
    "alden": 17155,
    "alden</w>": 27710,
    "aldenrichards</w>": 20051,
    "alder": 18220,
    "alder</w>": 46571,
    "aldi</w>": 23204,
    "aldo</w>": 9933,
    "aldridge</w>": 38084,
    "alds</w>": 14285,
    "aldu": 6505,
    "aldub": 10532,
    "aldub</w>": 15247,
    "ale": 1440,
    "ale</w>": 1336,
    "alea</w>": 26518,
    "aleague</w>": 38909,
    "alec": 29804,
    "alec</w>": 19954,
    "alecoscino</w>": 47948,
    "aled</w>": 4970,
    "alee</w>": 24515,
    "alej": 23440,
    "alejandro</w>": 32950,
    "alek": 26906,
    "alek</w>": 43310,
    "aleksand": 48429,
    "alem</w>": 11825,
    "aleppo</w>": 19258,
    "aler": 25674,
    "aler</w>": 27335,
    "alert</w>": 4662,
    "alerts</w>": 22144,
    "ales": 44171,
    "ales</w>": 5962,
    "aless": 21864,
    "alessandro</w>": 37344,
    "alestine</w>": 31945,
    "alex": 2959,
    "alex</w>": 4134,
    "alexa</w>": 16273,
    "alexand": 10696,
    "alexander": 25527,
    "alexander</w>": 7563,
    "alexandra</w>": 19054,
    "alexandre</w>": 35711,
    "alexandria</w>": 21171,
    "alexis": 35023,
    "alexis</w>": 14243,
    "aley</w>": 21635,
    "alf</w>": 27098,
    "alfa</w>": 23482,
    "alfar": 38870,
    "alfie</w>": 28598,
    "alfon": 31947,
    "alfonso</w>": 41784,
    "alfre": 20982,
    "alfred</w>": 16553,
    "alfredo</w>": 32291,
    "algae</w>": 25654,
    "algar": 36291,
    "algarve</w>": 40290,
    "alge": 24336,
    "algebra</w>": 33694,
    "alger": 18568,
    "algeria</w>": 25257,
    "algon": 33007,
    "algori": 14912,
    "algorithm</w>": 23295,
    "algorithms</w>": 26039,
    "alham": 23352,
    "alhamdulil": 35129,
    "alhamdulillah</w>": 38982,
    "ali": 835,
    "ali</w>": 3558,
    "alia</w>": 2492,
    "aliaa</w>": 36468,
    "alian</w>": 3464,
    "alias</w>": 40026,
    "alibaba</w>": 39231,
    "alic": 25265,
    "alice": 23759,
    "alice</w>": 9192,
    "alici": 31630,
    "alicia</w>": 20914,
    "alie</w>": 8697,
    "alien": 22846,
    "alien</w>": 9639,
    "aliens</w>": 14883,
    "alier</w>": 39493,
    "alies</w>": 38086,
    "alife": 41347,
    "alife</w>": 21100,
    "alig": 21272,
    "alight</w>": 36157,
    "align</w>": 31160,
    "aligned</w>": 29292,
    "alignment</w>": 27267,
    "alik</w>": 31141,
    "alike</w>": 12665,
    "alim": 42075,
    "alin": 42746,
    "alin</w>": 40063,
    "alina</w>": 39529,
    "aline</w>": 21799,
    "aling</w>": 5169,
    "alion</w>": 19049,
    "alis": 21308,
    "alis</w>": 20114,
    "alisa</w>": 38918,
    "alisation</w>": 42143,
    "alise</w>": 36718,
    "alised</w>": 25099,
    "alism</w>": 5607,
    "alison": 28653,
    "alison</w>": 16970,
    "alist": 44900,
    "alist</w>": 3320,
    "alistair</w>": 40551,
    "alistic</w>": 22302,
    "alists</w>": 5653,
    "alit": 45566,
    "alities</w>": 27925,
    "ality</w>": 1694,
    "alive": 40467,
    "alive</w>": 4716,
    "aliz": 30979,
    "alization</w>": 8026,
    "alize</w>": 10268,
    "alized</w>": 6141,
    "alizer</w>": 38922,
    "alizes</w>": 26181,
    "alizing</w>": 13023,
    "alk": 30246,
    "alk</w>": 21577,
    "alkal": 33450,
    "alkaline</w>": 39210,
    "all": 813,
    "all</w>": 615,
    "alla": 13884,
    "alla</w>": 14000,
    "allabout": 43996,
    "allah</w>": 6378,
    "allan": 36552,
    "allan</w>": 15404,
    "allblacks</w>": 47728,
    "allday</w>": 35862,
    "alle": 4870,
    "alle</w>": 29478,
    "alled</w>": 7379,
    "alleg": 7456,
    "allegations</w>": 16992,
    "alleged</w>": 12133,
    "allegedly</w>": 14177,
    "alleges</w>": 45051,
    "allegh": 41479,
    "allegheny</w>": 47851,
    "allegi": 28832,
    "allegiance</w>": 30955,
    "allen": 16712,
    "allen</w>": 6386,
    "allenge</w>": 31387,
    "aller": 10116,
    "aller</w>": 30630,
    "allergic</w>": 28809,
    "allergies</w>": 28247,
    "allergy</w>": 24408,
    "allery</w>": 32542,
    "alles</w>": 43354,
    "allevi": 31682,
    "alleviate</w>": 44799,
    "alley": 36205,
    "alley</w>": 10329,
    "allez</w>": 49137,
    "alli": 4123,
    "alli</w>": 15268,
    "alliance": 45404,
    "alliance</w>": 8945,
    "alliances</w>": 48403,
    "allianz</w>": 45740,
    "allie</w>": 25040,
    "allied</w>": 20045,
    "allies</w>": 17277,
    "alligator</w>": 28574,
    "allin": 45007,
    "allin</w>": 22395,
    "alline</w>": 48182,
    "alling</w>": 2992,
    "allis</w>": 45309,
    "allison": 34602,
    "allison</w>": 16578,
    "allman</w>": 42611,
    "allo": 8107,
    "allo</w>": 18389,
    "allocated</w>": 42716,
    "allocation</w>": 35139,
    "allon</w>": 46693,
    "allot": 26363,
    "allotment</w>": 33750,
    "allow": 5645,
    "allow</w>": 6722,
    "allowance</w>": 35696,
    "allowed</w>": 7885,
    "allowing</w>": 12458,
    "allows</w>": 9966,
    "alloy</w>": 22467,
    "alls</w>": 1997,
    "allstar": 31247,
    "allstar</w>": 22974,
    "allstars</w>": 31198,
    "allthe": 29253,
    "allu": 20157,
    "alluarjun</w>": 39333,
    "allure</w>": 41814,
    "ally": 7461,
    "ally</w>": 769,
    "alm</w>": 28303,
    "alma": 32933,
    "alma</w>": 18337,
    "alman": 29394,
    "almanac</w>": 41268,
    "almighty</w>": 21898,
    "almond</w>": 15646,
    "almonds</w>": 30468,
    "almost": 47534,
    "almost</w>": 2671,
    "aln": 47203,
    "alo": 3435,
    "alo</w>": 6183,
    "aloe</w>": 30728,
    "alog</w>": 15813,
    "alogue</w>": 9101,
    "aloha</w>": 23160,
    "aloils</w>": 49002,
    "alom</w>": 22236,
    "alon": 14097,
    "alon</w>": 42846,
    "alone</w>": 4702,
    "along": 8300,
    "along</w>": 2528,
    "alongside</w>": 8646,
    "alonso</w>": 25704,
    "aloo</w>": 46187,
    "alore</w>": 14323,
    "alot</w>": 16945,
    "alou": 43180,
    "aloud</w>": 30028,
    "alove": 46669,
    "alove</w>": 37045,
    "alp": 32020,
    "alp</w>": 39342,
    "alpac": 30128,
    "alpaca</w>": 42561,
    "alph": 6720,
    "alpha": 11807,
    "alpha</w>": 8624,
    "alphabe": 45796,
    "alphabet</w>": 22335,
    "alphon": 37865,
    "alpine</w>": 17055,
    "alps</w>": 18191,
    "already</w>": 2426,
    "alright</w>": 10866,
    "als": 23982,
    "als</w>": 938,
    "alsace</w>": 49388,
    "also</w>": 1446,
    "alt": 9995,
    "alt</w>": 10006,
    "alta": 24470,
    "alta</w>": 25378,
    "altaf</w>": 47342,
    "altam": 45624,
    "altar</w>": 16385,
    "alter": 4949,
    "alter</w>": 21393,
    "altered</w>": 25201,
    "altern": 47463,
    "alternate</w>": 15926,
    "alternati": 16699,
    "alternative": 37327,
    "alternative</w>": 8248,
    "alternatives</w>": 25041,
    "alth": 23463,
    "alth</w>": 5863,
    "although</w>": 9421,
    "alti": 35531,
    "alties</w>": 17276,
    "altitude</w>": 23241,
    "altman</w>": 48100,
    "alto": 35053,
    "alto</w>": 17518,
    "altogether</w>": 45689,
    "alton": 41331,
    "alton</w>": 36550,
    "altrin": 38458,
    "altrincham</w>": 44718,
    "alty</w>": 5546,
    "alu": 4776,
    "alu</w>": 27991,
    "alum": 5404,
    "alum</w>": 10553,
    "alumin": 14563,
    "alumini": 22908,
    "aluminium</w>": 23631,
    "aluminum</w>": 15251,
    "alumna</w>": 30313,
    "alumni</w>": 6646,
    "alumnus</w>": 23633,
    "alums</w>": 30155,
    "alv": 20928,
    "alvar": 25196,
    "alvarez</w>": 26924,
    "alvaro</w>": 41941,
    "alves</w>": 38547,
    "alvin</w>": 27023,
    "alway": 14046,
    "alway</w>": 43764,
    "always": 24997,
    "always</w>": 1466,
    "alwx</w>": 32768,
    "aly": 6468,
    "aly</w>": 12910,
    "alyn": 49150,
    "alyss": 29490,
    "alyssa</w>": 18898,
    "alz": 12936,
    "alz</w>": 41128,
    "alzheim": 15212,
    "alzheimer</w>": 21151,
    "alzheimers</w>": 34592,
    "am": 548,
    "am</w>": 687,
    "ama": 18206,
    "ama</w>": 1696,
    "amad": 45095,
    "amade": 37366,
    "amag": 32049,
    "amal": 15315,
    "amal</w>": 36753,
    "aman": 19890,
    "aman</w>": 10110,
    "amand": 14560,
    "amanda</w>": 10036,
    "amar": 6424,
    "amar</w>": 19607,
    "amara</w>": 48522,
    "amari": 42565,
    "amarillo</w>": 40449,
    "amarine</w>": 45591,
    "amarketing</w>": 30788,
    "amas": 22716,
    "amas</w>": 15667,
    "amat": 38664,
    "amat</w>": 25455,
    "amate": 12453,
    "amateur</w>": 14287,
    "amaya</w>": 47210,
    "amaz": 1185,
    "amaze</w>": 24846,
    "amazed</w>": 18944,
    "amazing": 15949,
    "amazing</w>": 1370,
    "amazingly</w>": 20368,
    "amazon": 13630,
    "amazon</w>": 4140,
    "amb": 9042,
    "amb</w>": 16853,
    "amba</w>": 27003,
    "ambani</w>": 45967,
    "ambas": 5634,
    "ambassad": 5758,
    "ambassador</w>": 6795,
    "ambassadors</w>": 16832,
    "ambed": 42089,
    "ambedkar</w>": 48131,
    "amber": 18292,
    "amber</w>": 9986,
    "ambi": 11844,
    "ambient</w>": 23447,
    "ambigu": 35702,
    "ambition</w>": 20673,
    "ambitions</w>": 34152,
    "ambitious</w>": 18666,
    "ambro": 17585,
    "ambrose</w>": 24253,
    "ambu": 34423,
    "ambul": 13944,
    "ambulance</w>": 15555,
    "ambush</w>": 40725,
    "amc": 24942,
    "amc</w>": 16921,
    "amd</w>": 20845,
    "ame": 3995,
    "ame</w>": 780,
    "amed</w>": 5660,
    "ameen</w>": 24229,
    "amel": 31988,
    "amel</w>": 10960,
    "ameli": 21599,
    "amelia</w>": 21433,
    "amell</w>": 48198,
    "amen": 18716,
    "amen</w>": 12335,
    "amend": 12425,
    "amendment</w>": 15019,
    "amendments</w>": 40901,
    "amenities</w>": 30096,
    "ament</w>": 27528,
    "amer": 17081,
    "amer</w>": 16147,
    "ameri": 40422,
    "americ": 1283,
    "america</w>": 2224,
    "americafirst</w>": 43216,
    "american": 8746,
    "american</w>": 2151,
    "americana</w>": 26221,
    "americanair</w>": 42538,
    "americani": 39726,
    "americans</w>": 6676,
    "americas": 33343,
    "americas</w>": 18142,
    "ames</w>": 5469,
    "ameter</w>": 23393,
    "amethy": 30291,
    "amethyst</w>": 31485,
    "amex</w>": 46390,
    "amg</w>": 21324,
    "amher": 32311,
    "amherst</w>": 39065,
    "ami": 6100,
    "ami</w>": 3065,
    "amic": 25824,
    "amic</w>": 21383,
    "amid": 18908,
    "amid</w>": 11953,
    "amide</w>": 30952,
    "amidst</w>": 25172,
    "amie</w>": 36901,
    "amig": 40294,
    "amiga</w>": 35329,
    "amigo</w>": 44991,
    "amigos</w>": 28176,
    "amii": 35462,
    "amiibo</w>": 38871,
    "amily</w>": 36732,
    "amin": 14337,
    "amin</w>": 20235,
    "amina</w>": 47531,
    "amination</w>": 30355,
    "amine</w>": 35823,
    "aming</w>": 3507,
    "amino</w>": 33464,
    "amir": 26029,
    "amir</w>": 21973,
    "amis</w>": 29829,
    "amish</w>": 24958,
    "amit": 15083,
    "amit</w>": 25255,
    "amitabh</w>": 48124,
    "amitshah</w>": 32374,
    "aml</w>": 43185,
    "amma</w>": 29786,
    "amman</w>": 29243,
    "ammo</w>": 33474,
    "ammunition</w>": 35060,
    "amn</w>": 24073,
    "amne": 14596,
    "amnesia</w>": 41741,
    "amnesty": 46330,
    "amnesty</w>": 21177,
    "amo": 4833,
    "amo</w>": 11156,
    "amodi</w>": 9826,
    "amon": 17492,
    "amon</w>": 24046,
    "among": 12310,
    "among</w>": 4265,
    "amongst</w>": 12520,
    "amoo</w>": 26977,
    "amor": 19977,
    "amor</w>": 15973,
    "amore": 38937,
    "amore</w>": 22691,
    "amores</w>": 36338,
    "amos</w>": 18133,
    "amoto</w>": 25492,
    "amount</w>": 6403,
    "amounts</w>": 16747,
    "amour</w>": 29908,
    "amovie</w>": 41062,
    "amp": 3521,
    "amp</w>": 6259,
    "amped</w>": 22640,
    "amphi": 16379,
    "amphibious</w>": 45206,
    "amphitheater</w>": 41285,
    "amphitheatre</w>": 44039,
    "ample</w>": 34162,
    "amples</w>": 14536,
    "ampli": 15647,
    "amplifier</w>": 31743,
    "amplify</w>": 45308,
    "amps</w>": 19252,
    "ampton": 29410,
    "ampton</w>": 9347,
    "amr</w>": 30916,
    "amreading</w>": 16546,
    "amrit": 33849,
    "ams</w>": 1396,
    "amster": 9110,
    "amsterdam</w>": 9441,
    "amtrak</w>": 27855,
    "amu": 11347,
    "amu</w>": 32336,
    "amur": 35014,
    "amura</w>": 35487,
    "amus</w>": 36269,
    "amuse": 21421,
    "amuse</w>": 44367,
    "amused</w>": 30212,
    "amusement</w>": 32570,
    "amusic</w>": 20266,
    "amusing</w>": 31789,
    "amwriting</w>": 9660,
    "amy": 10547,
    "amy</w>": 5187,
    "an": 514,
    "an</w>": 550,
    "ana": 6588,
    "ana</w>": 1388,
    "anab": 34742,
    "anada</w>": 27948,
    "anag": 12115,
    "anagh</w>": 40774,
    "anaheim</w>": 23728,
    "anak": 34814,
    "anak</w>": 38658,
    "anal": 2785,
    "analo": 34179,
    "analog</w>": 19963,
    "analogue</w>": 46031,
    "analy": 4611,
    "analyse</w>": 47246,
    "analyses</w>": 39695,
    "analysis</w>": 5296,
    "analyst</w>": 14198,
    "analysts</w>": 28075,
    "analytical</w>": 34550,
    "analytics</w>": 8558,
    "analyze</w>": 28519,
    "analyzing</w>": 32107,
    "anam": 29525,
    "anan": 37215,
    "anand": 25073,
    "anand</w>": 22083,
    "anap": 41566,
    "anarch": 46405,
    "anarchi": 39879,
    "anarchy</w>": 27707,
    "anas": 31382,
    "anas</w>": 12633,
    "anast": 48902,
    "anasta": 22915,
    "anastasi": 36534,
    "anastasia</w>": 37975,
    "anat": 10045,
    "anath</w>": 31277,
    "anatom": 33759,
    "anatomy</w>": 15376,
    "anc": 1124,
    "anc</w>": 17758,
    "anca</w>": 14583,
    "ance": 7165,
    "ance</w>": 884,
    "anced</w>": 5071,
    "ancer</w>": 17415,
    "ancers</w>": 37296,
    "ances</w>": 3515,
    "ancestor</w>": 43904,
    "ancestors</w>": 24405,
    "ancestral</w>": 41615,
    "ancestry</w>": 30922,
    "anch": 9489,
    "anche</w>": 34679,
    "ancho": 26610,
    "anchor": 20030,
    "anchor</w>": 13201,
    "anchorage</w>": 31950,
    "anchored</w>": 45926,
    "anchors</w>": 37830,
    "anci": 4192,
    "ancient": 31495,
    "ancient</w>": 5810,
    "ancies</w>": 21647,
    "ancing</w>": 7797,
    "anco</w>": 15459,
    "ancy": 16282,
    "ancy</w>": 3633,
    "and": 672,
    "and</w>": 537,
    "anda</w>": 2911,
    "andalu": 31443,
    "andco</w>": 36302,
    "ande": 26889,
    "ande</w>": 30354,
    "ander": 3740,
    "ander</w>": 3935,
    "anders</w>": 10880,
    "andersen</w>": 32661,
    "anderson": 26683,
    "anderson</w>": 6510,
    "andes</w>": 24052,
    "andfriends</w>": 36871,
    "andhi</w>": 21617,
    "andhra</w>": 32452,
    "andi": 28870,
    "andi</w>": 14354,
    "andie</w>": 46318,
    "andme</w>": 42831,
    "ando": 35950,
    "ando</w>": 5986,
    "andolan</w>": 48965,
    "andon</w>": 36488,
    "andor": 45243,
    "andover</w>": 44177,
    "andr": 22661,
    "andra": 46795,
    "andra</w>": 21730,
    "andre": 2657,
    "andre</w>": 9400,
    "andrea</w>": 10895,
    "andreas</w>": 20444,
    "andrei</w>": 42137,
    "andres</w>": 25197,
    "andretti</w>": 44291,
    "andrew": 11717,
    "andrew</w>": 4847,
    "andrews</w>": 14506,
    "andri": 37208,
    "andro": 4417,
    "andro</w>": 17980,
    "android": 24284,
    "android</w>": 5191,
    "androidgames</w>": 46572,
    "andromeda</w>": 42942,
    "andrÃ©</w>": 35609,
    "ands</w>": 32257,
    "andthe": 22111,
    "andu": 44200,
    "andum</w>": 47266,
    "andy": 9447,
    "andy</w>": 2888,
    "ane": 5846,
    "ane</w>": 3051,
    "anec": 33965,
    "anem": 41395,
    "anemone</w>": 49019,
    "aneous</w>": 48273,
    "anes</w>": 15381,
    "anese</w>": 48778,
    "anesthe": 30622,
    "anesthesia</w>": 43353,
    "anew": 39084,
    "anew</w>": 47341,
    "anews</w>": 20919,
    "aney</w>": 22387,
    "anfield</w>": 26993,
    "ang": 883,
    "ang</w>": 2704,
    "anga</w>": 11641,
    "angames</w>": 43178,
    "angan</w>": 28264,
    "angas</w>": 46180,
    "ange": 2960,
    "ange</w>": 3039,
    "angel": 5029,
    "angel</w>": 5130,
    "angela</w>": 12354,
    "angeles</w>": 7382,
    "angeli": 15265,
    "angelic</w>": 41038,
    "angelica</w>": 38582,
    "angelina</w>": 28890,
    "angelo</w>": 14342,
    "angelou</w>": 41328,
    "angels</w>": 7809,
    "anger": 32737,
    "anger</w>": 6788,
    "angerous</w>": 39716,
    "angers</w>": 29756,
    "angh": 34030,
    "angi": 28003,
    "angi</w>": 24301,
    "angie</w>": 18859,
    "angle": 21749,
    "angle</w>": 6946,
    "angled</w>": 32322,
    "angler</w>": 22284,
    "anglers</w>": 41608,
    "angles</w>": 18627,
    "anglesey</w>": 31850,
    "anglia</w>": 32076,
    "anglic": 28322,
    "anglican</w>": 33284,
    "angling</w>": 36824,
    "anglo": 39515,
    "anglo</w>": 30408,
    "ango</w>": 19090,
    "angola</w>": 36636,
    "angor</w>": 41740,
    "angp</w>": 19992,
    "angry": 33910,
    "angry</w>": 9054,
    "angs</w>": 18441,
    "angst</w>": 41714,
    "angu": 11209,
    "angular": 43584,
    "angular</w>": 24981,
    "angularjs</w>": 48608,
    "angus</w>": 19688,
    "ani": 1326,
    "ani</w>": 3624,
    "ania</w>": 9866,
    "anian</w>": 9945,
    "anians</w>": 39393,
    "anic</w>": 23113,
    "anie": 26697,
    "anie</w>": 7671,
    "anil": 28589,
    "anil</w>": 34619,
    "anim": 2190,
    "animal": 10697,
    "animal</w>": 4668,
    "animalrights</w>": 42859,
    "animals</w>": 4995,
    "animate</w>": 40076,
    "animated</w>": 13360,
    "animation</w>": 10344,
    "animations</w>": 42870,
    "animator</w>": 42591,
    "anime": 23314,
    "anime</w>": 6469,
    "anin</w>": 45735,
    "aning</w>": 30972,
    "anir": 27089,
    "anirud": 35278,
    "anirudhofficial</w>": 45917,
    "anis": 40986,
    "anis</w>": 47556,
    "anism</w>": 20947,
    "anist</w>": 16729,
    "anistan</w>": 9727,
    "aniston</w>": 47344,
    "anit": 23683,
    "anita</w>": 18544,
    "anium</w>": 14794,
    "anj": 22443,
    "anja</w>": 43440,
    "anjali</w>": 38834,
    "anjo</w>": 47353,
    "ank": 13339,
    "ank</w>": 10029,
    "anka</w>": 45324,
    "ankara</w>": 34309,
    "ankle</w>": 14777,
    "ankles</w>": 48688,
    "ann": 850,
    "ann</w>": 5424,
    "anna": 13821,
    "anna</w>": 2160,
    "annab": 22336,
    "annabelle</w>": 47661,
    "annah": 39166,
    "annah</w>": 14327,
    "annak": 41720,
    "annan</w>": 32166,
    "annapolis</w>": 34491,
    "annas": 48467,
    "anne": 9139,
    "anne</w>": 4083,
    "anned</w>": 27352,
    "anner</w>": 12642,
    "annes</w>": 24343,
    "annette</w>": 36821,
    "annex": 42958,
    "annex</w>": 46389,
    "anni": 2438,
    "anni</w>": 13728,
    "annie": 37270,
    "annie</w>": 12173,
    "annies</w>": 43184,
    "annihil": 32734,
    "annis</w>": 24742,
    "anniv</w>": 31399,
    "anniver": 29671,
    "annivers": 42836,
    "anniversaire</w>": 30882,
    "anniversary</w>": 3048,
    "anno": 9901,
    "anno</w>": 26871,
    "annon</w>": 26385,
    "annot": 30411,
    "announ": 1806,
    "announce</w>": 3682,
    "announced</w>": 4103,
    "announcement</w>": 6932,
    "announcements</w>": 23735,
    "announcer</w>": 33626,
    "announces</w>": 6500,
    "announcing</w>": 11593,
    "annoy</w>": 45138,
    "annoyed</w>": 29863,
    "annoying</w>": 15248,
    "annu": 21698,
    "annual</w>": 2906,
    "annually</w>": 23703,
    "anny": 34313,
    "anny</w>": 5291,
    "ano": 5617,
    "ano</w>": 2658,
    "anom": 21612,
    "anomaly</w>": 46811,
    "anon": 47079,
    "anon</w>": 13667,
    "anonym": 38605,
    "anonymous</w>": 15036,
    "anoo": 25690,
    "anor": 13243,
    "anor</w>": 16596,
    "anos</w>": 20132,
    "another": 29274,
    "another</w>": 1380,
    "anova</w>": 24116,
    "ans": 24586,
    "ans</w>": 885,
    "ansari</w>": 40748,
    "ansel": 40356,
    "answ": 3369,
    "answe": 14391,
    "answer</w>": 4518,
    "answered</w>": 14499,
    "answering</w>": 18280,
    "answers</w>": 8692,
    "ant": 1103,
    "ant</w>": 773,
    "anta</w>": 3023,
    "antag": 41745,
    "antal": 39355,
    "antalya</w>": 47440,
    "antan": 32899,
    "antarc": 21338,
    "antarctic</w>": 27077,
    "antarctica</w>": 22587,
    "ante": 19311,
    "ante</w>": 9769,
    "antebellum</w>": 41683,
    "antelope</w>": 39177,
    "anten": 35517,
    "antenna</w>": 26370,
    "anter": 46508,
    "antes</w>": 14927,
    "antgrasso</w>": 39074,
    "anth": 3737,
    "anth</w>": 29741,
    "antha</w>": 47981,
    "anthe": 34167,
    "anthem</w>": 12504,
    "anthi</w>": 45261,
    "anthology</w>": 21009,
    "anthony": 17477,
    "anthony</w>": 6113,
    "anthro": 10019,
    "anthropo": 18538,
    "anthropology</w>": 32407,
    "anthus</w>": 37639,
    "anti": 3120,
    "anti</w>": 3564,
    "antibio": 18954,
    "antibiotic</w>": 34387,
    "antibiotics</w>": 29499,
    "antibody</w>": 49018,
    "antic": 8260,
    "anticip": 11435,
    "anticipate</w>": 38280,
    "anticipated</w>": 18605,
    "anticipating</w>": 48067,
    "anticipation</w>": 26983,
    "antics</w>": 37126,
    "antidote</w>": 45476,
    "antifa</w>": 35926,
    "antigua</w>": 39910,
    "antine</w>": 17641,
    "antino</w>": 27818,
    "antioxid": 23010,
    "antioxidant</w>": 37452,
    "antioxidants</w>": 34208,
    "antiqu": 21745,
    "antique": 46517,
    "antique</w>": 9060,
    "antiques</w>": 17365,
    "antis</w>": 19748,
    "antisemitism</w>": 36630,
    "antit": 37833,
    "antitrust</w>": 49343,
    "antlers</w>": 47720,
    "antly</w>": 5265,
    "anto": 16826,
    "anto</w>": 24486,
    "antoine</w>": 25188,
    "anton": 5497,
    "anton</w>": 19644,
    "antoni": 39958,
    "antonio": 30497,
    "antonio</w>": 7842,
    "antony</w>": 30707,
    "antrim</w>": 40252,
    "ants</w>": 1589,
    "antv</w>": 47520,
    "antw": 44460,
    "antwer": 26970,
    "antwerp</w>": 33797,
    "antz</w>": 25684,
    "anu": 8537,
    "anu</w>": 17152,
    "anup": 29617,
    "anus</w>": 27084,
    "anush": 22765,
    "anushka": 42080,
    "anushka</w>": 39822,
    "anushkasharma</w>": 44203,
    "anwar</w>": 34261,
    "anxi": 9021,
    "anxiety</w>": 11103,
    "anxious</w>": 27793,
    "any": 1307,
    "any</w>": 1504,
    "anya</w>": 11173,
    "anybody</w>": 10071,
    "anyi</w>": 41632,
    "anymore</w>": 7372,
    "anyone</w>": 2302,
    "anything</w>": 3582,
    "anytime</w>": 13924,
    "anyway</w>": 8931,
    "anyways</w>": 19778,
    "anywhere</w>": 8863,
    "anz": 14445,
    "anz</w>": 19425,
    "anza</w>": 14669,
    "anzac</w>": 31977,
    "ao": 7313,
    "ao</w>": 5703,
    "aoa</w>": 47119,
    "aoc</w>": 31918,
    "aofficial</w>": 30840,
    "aoki</w>": 33602,
    "aol</w>": 40643,
    "aon": 30928,
    "aon</w>": 48476,
    "aor": 32044,
    "aos</w>": 46860,
    "ap": 688,
    "ap</w>": 2728,
    "apa": 36954,
    "apa</w>": 13537,
    "apac</w>": 34320,
    "apache</w>": 23921,
    "apal": 38017,
    "apan</w>": 36562,
    "apar": 9161,
    "apark</w>": 32528,
    "apart": 6474,
    "apart</w>": 7803,
    "aparthe": 25121,
    "apartheid</w>": 26597,
    "apartment</w>": 8285,
    "apartments</w>": 15791,
    "aparty</w>": 26767,
    "apat": 31755,
    "apathy</w>": 18145,
    "apc</w>": 20300,
    "apd</w>": 44563,
    "ape": 6098,
    "ape</w>": 2609,
    "apec</w>": 47530,
    "aper": 13681,
    "aper</w>": 5858,
    "apers</w>": 15846,
    "apes</w>": 9550,
    "apeu": 19040,
    "apex": 41935,
    "apex</w>": 23712,
    "aph": 16341,
    "aph</w>": 29491,
    "apha</w>": 47104,
    "apho": 21758,
    "aphra": 44147,
    "api": 23342,
    "api</w>": 14674,
    "apia</w>": 44259,
    "apic": 40679,
    "aping</w>": 18456,
    "apink</w>": 35725,
    "apis</w>": 37575,
    "apk</w>": 27648,
    "apo": 4089,
    "apo</w>": 19758,
    "apocaly": 13932,
    "apocalypse</w>": 17571,
    "apocalyptic</w>": 35675,
    "apol": 5023,
    "apolice</w>": 45663,
    "apolis</w>": 9598,
    "apollo": 48213,
    "apollo</w>": 11554,
    "apolo": 31094,
    "apolog": 25530,
    "apologe": 42908,
    "apologi": 14977,
    "apologies</w>": 21959,
    "apologise</w>": 39608,
    "apologize</w>": 22879,
    "apologizes</w>": 35298,
    "apology</w>": 20768,
    "apor": 21871,
    "apore</w>": 6679,
    "apost": 20309,
    "apostle</w>": 33051,
    "apostles</w>": 48457,
    "app": 882,
    "app</w>": 2231,
    "appa": 4884,
    "appa</w>": 13110,
    "appalach": 30523,
    "appalachian</w>": 36806,
    "appalling</w>": 44797,
    "appar": 26698,
    "apparatus</w>": 37716,
    "apparel</w>": 13972,
    "apparent</w>": 23963,
    "apparently</w>": 5287,
    "appe": 3748,
    "appe</w>": 45949,
    "appeal</w>": 9625,
    "appealing</w>": 25909,
    "appeals</w>": 22447,
    "appear": 5544,
    "appear</w>": 9308,
    "appearance</w>": 7238,
    "appearances</w>": 17214,
    "appeared</w>": 11561,
    "appearing</w>": 18759,
    "appears</w>": 8743,
    "appell": 43833,
    "appen": 37201,
    "appen</w>": 26589,
    "apper</w>": 18780,
    "appet": 21686,
    "appeti": 24179,
    "appetite</w>": 24481,
    "appetizer</w>": 36065,
    "applau": 24713,
    "applaud</w>": 42152,
    "applause</w>": 22650,
    "apple": 8629,
    "apple</w>": 3055,
    "applemusic</w>": 21390,
    "apples</w>": 14032,
    "appleton</w>": 45250,
    "appli": 15495,
    "appliance</w>": 33677,
    "appliances</w>": 22134,
    "applic": 4235,
    "applicable</w>": 37927,
    "applicants</w>": 28035,
    "application</w>": 7241,
    "applications</w>": 7341,
    "applied</w>": 12636,
    "applies</w>": 24910,
    "apply</w>": 4356,
    "applying</w>": 17965,
    "appo": 5433,
    "appoint</w>": 36190,
    "appointed</w>": 11087,
    "appointment</w>": 10890,
    "appointments</w>": 23439,
    "appoints</w>": 25132,
    "apprais": 36972,
    "appraisal</w>": 46108,
    "appreci": 3474,
    "appreciate</w>": 6263,
    "appreciated</w>": 9264,
    "appreciates</w>": 36573,
    "appreciating</w>": 39352,
    "appreciation</w>": 9212,
    "appreciationday</w>": 37438,
    "appreciative</w>": 45074,
    "appren": 10582,
    "apprentic": 15662,
    "apprentice": 19122,
    "apprentice</w>": 17985,
    "apprentices</w>": 38252,
    "apprenticeship</w>": 26939,
    "apprenticeships</w>": 35425,
    "appro": 2398,
    "approach": 7781,
    "approach</w>": 6241,
    "approached</w>": 36499,
    "approaches</w>": 14962,
    "approaching</w>": 12164,
    "appropri": 8446,
    "appropriate</w>": 10768,
    "appropriately</w>": 30383,
    "appropriation</w>": 49110,
    "approval</w>": 13549,
    "approve</w>": 19064,
    "approved</w>": 9412,
    "approves</w>": 18107,
    "approx</w>": 18266,
    "approxim": 14201,
    "approximately</w>": 16128,
    "apps</w>": 7020,
    "appstore</w>": 31377,
    "appt</w>": 48112,
    "appy</w>": 34420,
    "apr": 39396,
    "apr</w>": 11177,
    "apra": 37027,
    "apric": 25923,
    "apricot</w>": 30815,
    "april": 23548,
    "april</w>": 2484,
    "apro": 42712,
    "apro</w>": 49051,
    "apron</w>": 29502,
    "aps</w>": 8868,
    "apse</w>": 31843,
    "apt</w>": 17921,
    "aptly</w>": 47313,
    "apu": 22166,
    "apur": 36900,
    "apur</w>": 45193,
    "aq": 14018,
    "aq</w>": 26862,
    "aqu": 4458,
    "aqua</w>": 18613,
    "aquaculture</w>": 41885,
    "aquaman</w>": 35098,
    "aquari": 37605,
    "aquarium</w>": 16814,
    "aquarius</w>": 38879,
    "aquatic</w>": 22658,
    "aque": 35927,
    "aque</w>": 37268,
    "aqui": 36826,
    "aquino</w>": 33796,
    "ar": 516,
    "ar</w>": 625,
    "ara": 24161,
    "ara</w>": 3340,
    "arab": 5405,
    "arab</w>": 12028,
    "arabia</w>": 11746,
    "arabian</w>": 24663,
    "arabic</w>": 16709,
    "arabs</w>": 39155,
    "arac": 47620,
    "arach": 37689,
    "arag": 41502,
    "araj</w>": 45142,
    "arak": 23416,
    "aram": 19223,
    "aram</w>": 21473,
    "arama</w>": 49066,
    "aran": 20839,
    "aran</w>": 19641,
    "aras</w>": 36399,
    "arat</w>": 30856,
    "arav": 35836,
    "arbit": 20267,
    "arbitr": 22702,
    "arbitration</w>": 34845,
    "arbor": 33516,
    "arbor</w>": 24878,
    "arboretum</w>": 41719,
    "arc": 4997,
    "arc</w>": 11592,
    "arca": 25189,
    "arca</w>": 37612,
    "arcade</w>": 13331,
    "arcadia</w>": 38372,
    "arch": 2458,
    "arch</w>": 8557,
    "archa": 45619,
    "archae": 10121,
    "archaeological</w>": 26163,
    "archaeologists</w>": 45035,
    "archaeology</w>": 14868,
    "archan": 33359,
    "archbishop</w>": 23994,
    "arche": 22474,
    "archer</w>": 21824,
    "archers</w>": 38407,
    "archery</w>": 23935,
    "arches</w>": 30771,
    "archi": 4479,
    "archie</w>": 20557,
    "archipel": 39750,
    "archipelago</w>": 43025,
    "architec": 3359,
    "architect</w>": 12192,
    "architects</w>": 13290,
    "architectural</w>": 15360,
    "architecture": 39038,
    "architecture</w>": 4920,
    "archival</w>": 39249,
    "archive": 42257,
    "archive</w>": 10548,
    "archived</w>": 42379,
    "archives</w>": 9411,
    "archy</w>": 15643,
    "arctic": 29716,
    "arctic</w>": 9138,
    "ard": 3793,
    "ard</w>": 746,
    "arden": 44600,
    "arden</w>": 27057,
    "ardi": 23932,
    "ardi</w>": 19837,
    "ardo": 35735,
    "ardo</w>": 9394,
    "ards</w>": 1654,
    "ardu": 20906,
    "arduino</w>": 25398,
    "are": 1076,
    "are</w>": 631,
    "area</w>": 2445,
    "areas</w>": 5429,
    "arec": 18136,
    "areclipse</w>": 36030,
    "ared</w>": 5369,
    "arel</w>": 12798,
    "arella</w>": 24784,
    "arelli</w>": 48619,
    "aren": 4033,
    "aren</w>": 4318,
    "arena</w>": 5463,
    "arenas</w>": 47860,
    "arent</w>": 37487,
    "arer</w>": 14857,
    "arers</w>": 33159,
    "ares</w>": 12224,
    "arest</w>": 11708,
    "aret</w>": 22247,
    "areth</w>": 47725,
    "aretha</w>": 42090,
    "areyou": 37607,
    "arez</w>": 13108,
    "arg</w>": 27285,
    "argent": 7812,
    "argentina</w>": 9789,
    "argentine</w>": 32582,
    "argon": 40737,
    "argos</w>": 37443,
    "argu": 7440,
    "arguably</w>": 30899,
    "argue</w>": 19788,
    "argued</w>": 48153,
    "argues</w>": 30045,
    "arguing</w>": 26549,
    "argument</w>": 16224,
    "arguments</w>": 24693,
    "argus</w>": 44300,
    "argy": 21066,
    "argyle</w>": 36179,
    "argyll</w>": 40667,
    "ari": 1221,
    "ari</w>": 3681,
    "aria</w>": 8883,
    "arial</w>": 42431,
    "arian": 29980,
    "arian</w>": 6953,
    "ariana</w>": 14892,
    "arianag": 23025,
    "arianagrande</w>": 23321,
    "arianism</w>": 44351,
    "arians</w>": 19104,
    "arias</w>": 22567,
    "arie</w>": 18774,
    "ariel": 47959,
    "ariel</w>": 21025,
    "aries</w>": 5213,
    "arif</w>": 46621,
    "arily</w>": 12993,
    "arin": 29564,
    "arin</w>": 18612,
    "arina</w>": 29271,
    "arine</w>": 29586,
    "aring</w>": 2142,
    "ario</w>": 8862,
    "arios</w>": 25392,
    "aris</w>": 15227,
    "arise</w>": 26490,
    "arist</w>": 12110,
    "aristo": 25666,
    "aristotle</w>": 49156,
    "arities</w>": 31069,
    "arity</w>": 16608,
    "arium</w>": 11809,
    "arius</w>": 21482,
    "ariz": 6516,
    "arized</w>": 40167,
    "arizon": 28936,
    "arizona</w>": 7106,
    "arjun": 24565,
    "arjun</w>": 20477,
    "arjuna</w>": 43835,
    "ark": 11921,
    "ark</w>": 12010,
    "arkansas</w>": 12227,
    "arkham</w>": 36381,
    "arl</w>": 48542,
    "arlington": 44940,
    "arlington</w>": 17865,
    "arly</w>": 3637,
    "arm": 5671,
    "arm</w>": 4793,
    "arma": 15887,
    "arma</w>": 38716,
    "armad": 37897,
    "armada</w>": 34938,
    "armagh</w>": 44313,
    "armani</w>": 31314,
    "armb": 37096,
    "armchair</w>": 45757,
    "armed": 40471,
    "armed</w>": 8202,
    "armen": 13145,
    "armenia</w>": 22008,
    "armenian</w>": 24891,
    "armies</w>": 46686,
    "armin": 45481,
    "arming</w>": 19766,
    "armist": 38150,
    "armistice</w>": 46765,
    "armor</w>": 16167,
    "armored</w>": 28214,
    "armory</w>": 38610,
    "armour</w>": 18503,
    "armoured</w>": 42514,
    "arms</w>": 5706,
    "armstrong</w>": 15005,
    "army": 13541,
    "army</w>": 3133,
    "armys</w>": 27311,
    "arn": 9348,
    "arn</w>": 37597,
    "arnau": 45556,
    "arne</w>": 43509,
    "arney</w>": 35962,
    "arnold": 49096,
    "arnold</w>": 13609,
    "arns</w>": 46692,
    "aro": 7514,
    "aro</w>": 11551,
    "aroa</w>": 48209,
    "arom": 16831,
    "aroma": 40143,
    "aroma</w>": 26390,
    "aromas</w>": 47439,
    "aromatherapy</w>": 42584,
    "aromatic</w>": 39669,
    "aron": 30855,
    "aron</w>": 28926,
    "aroo</w>": 47581,
    "arora</w>": 31897,
    "arosa</w>": 44264,
    "arose</w>": 44262,
    "around": 35615,
    "around</w>": 1630,
    "arqu": 35654,
    "arquitec": 41703,
    "arr": 39106,
    "arr</w>": 42489,
    "arra": 32918,
    "arra</w>": 43827,
    "arrahman</w>": 44554,
    "arran</w>": 45722,
    "arrang": 16711,
    "arrange": 15410,
    "arrange</w>": 26311,
    "arranged</w>": 22451,
    "arrangement</w>": 23822,
    "arrangements</w>": 23792,
    "arranging</w>": 35321,
    "array</w>": 17293,
    "arre": 4374,
    "arrell</w>": 28846,
    "arrest</w>": 9320,
    "arrested</w>": 5845,
    "arresting</w>": 43930,
    "arrests</w>": 20683,
    "arri": 2115,
    "arrival</w>": 9073,
    "arrivals</w>": 19583,
    "arrive</w>": 8851,
    "arrived</w>": 3514,
    "arrives</w>": 9905,
    "arriving</w>": 10884,
    "arro": 15729,
    "arrog": 26997,
    "arrogance</w>": 47025,
    "arrogant</w>": 40582,
    "arrow": 30920,
    "arrow</w>": 11149,
    "arrowhead</w>": 46393,
    "arrows</w>": 24768,
    "arroyo</w>": 45237,
    "ars": 42815,
    "ars</w>": 864,
    "arse</w>": 22665,
    "arsen": 5330,
    "arsenal": 45234,
    "arsenal</w>": 6084,
    "arsene</w>": 32117,
    "arson</w>": 29937,
    "art": 1486,
    "art</w>": 794,
    "arta</w>": 12031,
    "arte": 13482,
    "arte</w>": 12947,
    "artem": 40387,
    "artemis</w>": 45256,
    "arten</w>": 37043,
    "arter": 29449,
    "artery</w>": 40062,
    "artes</w>": 48629,
    "artforsale</w>": 48239,
    "artgallery</w>": 31982,
    "arth": 7146,
    "arth</w>": 20265,
    "arthistory</w>": 39313,
    "arthr": 20807,
    "arthritis</w>": 22916,
    "arthro": 43255,
    "arthur": 35660,
    "arthur</w>": 8550,
    "arti": 1635,
    "arti</w>": 34601,
    "artic": 3003,
    "articho": 30937,
    "artichoke</w>": 39647,
    "article</w>": 3550,
    "articles</w>": 11939,
    "articul": 40343,
    "articulate</w>": 45444,
    "artif": 8950,
    "artifact</w>": 37718,
    "artifacts</w>": 30249,
    "artificial": 19357,
    "artificial</w>": 12040,
    "artificialintelligence</w>": 20799,
    "artillery</w>": 24465,
    "artin": 33168,
    "artin</w>": 48540,
    "artis</w>": 41794,
    "artisan": 36389,
    "artisan</w>": 21535,
    "artisans</w>": 40140,
    "artist": 14326,
    "artist</w>": 2456,
    "artiste</w>": 41402,
    "artistic</w>": 12421,
    "artiston": 48443,
    "artistry</w>": 38570,
    "artists</w>": 4899,
    "artistson": 32127,
    "artistsontwitter</w>": 39469,
    "artlovers</w>": 35617,
    "arto": 28464,
    "artof": 31751,
    "artoftheday</w>": 43990,
    "arton</w>": 46744,
    "arts": 22040,
    "arts</w>": 3812,
    "artsy</w>": 31588,
    "arturo</w>": 38591,
    "artwit</w>": 36713,
    "artwork</w>": 4188,
    "artworks</w>": 26215,
    "arty": 45417,
    "arty</w>": 25916,
    "aru": 13757,
    "aru</w>": 23907,
    "aruba</w>": 40131,
    "arugula</w>": 40770,
    "arum</w>": 48732,
    "arun": 16105,
    "arun</w>": 31877,
    "arunach": 47260,
    "arunjaitley</w>": 44874,
    "arus</w>": 22644,
    "arvin": 16971,
    "arvind": 21209,
    "arvind</w>": 41079,
    "arvindkejriwal</w>": 22971,
    "arvo</w>": 45726,
    "arwx</w>": 29824,
    "ary": 4617,
    "ary</w>": 856,
    "arya</w>": 23594,
    "aryan</w>": 34966,
    "as": 587,
    "as</w>": 601,
    "asa": 39676,
    "asa</w>": 11914,
    "asad</w>": 42376,
    "asaki</w>": 22455,
    "asam": 40603,
    "asan": 22379,
    "asan</w>": 17841,
    "asana</w>": 42363,
    "asant</w>": 25536,
    "asants</w>": 37766,
    "asap": 24199,
    "asap</w>": 10822,
    "asar": 24733,
    "asar</w>": 49299,
    "asb</w>": 31186,
    "asbe": 32113,
    "asbestos</w>": 33765,
    "asc": 22720,
    "asc</w>": 23305,
    "ascen": 20767,
    "ascension</w>": 35499,
    "ascent</w>": 36625,
    "asci": 12753,
    "asco": 25578,
    "asco</w>": 17488,
    "ascot</w>": 23723,
    "ascri": 15506,
    "asd</w>": 36988,
    "asda</w>": 29391,
    "asdf": 36857,
    "asdfghj": 42758,
    "asdfghjkl</w>": 47660,
    "ase": 8083,
    "ase</w>": 894,
    "asean</w>": 24472,
    "aseball</w>": 46903,
    "ased</w>": 2134,
    "asen": 41085,
    "aser": 39615,
    "aser</w>": 7209,
    "ases</w>": 3762,
    "asf</w>": 25863,
    "asg</w>": 34813,
    "ash": 2067,
    "ash</w>": 2612,
    "asha": 40572,
    "asha</w>": 13472,
    "ashamed</w>": 20633,
    "ashby</w>": 46531,
    "ashe": 48523,
    "ashe</w>": 31752,
    "asher</w>": 37585,
    "ashes</w>": 12587,
    "asheville</w>": 28897,
    "ashford</w>": 37796,
    "ashi": 15563,
    "ashi</w>": 15934,
    "ashish</w>": 33145,
    "ashland</w>": 39938,
    "ashleigh</w>": 49356,
    "ashley": 17825,
    "ashley</w>": 8957,
    "asho": 20273,
    "ashok</w>": 38141,
    "ashore</w>": 31194,
    "ashram</w>": 43445,
    "ashton": 43264,
    "ashton</w>": 12228,
    "ashtra</w>": 18118,
    "asi": 3596,
    "asi</w>": 12562,
    "asia</w>": 5741,
    "asian": 21737,
    "asian</w>": 7128,
    "asiangames</w>": 49108,
    "asians</w>": 36771,
    "asics</w>": 31097,
    "aside</w>": 13676,
    "asif</w>": 37302,
    "asim</w>": 46050,
    "asin": 48432,
    "asin</w>": 44347,
    "asing</w>": 4194,
    "asingly</w>": 15803,
    "asion</w>": 31753,
    "asis</w>": 12398,
    "ask": 11027,
    "ask</w>": 2765,
    "asked</w>": 3993,
    "asking</w>": 5914,
    "asks</w>": 7953,
    "asl</w>": 41650,
    "asleep</w>": 10749,
    "asley</w>": 28206,
    "asli</w>": 44290,
    "asm</w>": 13851,
    "asma</w>": 38497,
    "asmsg</w>": 19839,
    "aso": 30343,
    "aso</w>": 27932,
    "asober": 43749,
    "asocial</w>": 48557,
    "ason</w>": 1163,
    "asone</w>": 31249,
    "asons</w>": 4249,
    "asos</w>": 37924,
    "asot</w>": 47968,
    "asp": 17814,
    "asp</w>": 36666,
    "asparag": 20301,
    "asparagus</w>": 20604,
    "aspe": 10894,
    "aspect</w>": 19681,
    "aspects</w>": 18203,
    "aspen": 35695,
    "aspen</w>": 25712,
    "asper": 32991,
    "asph": 28019,
    "asphalt</w>": 30574,
    "aspir": 12669,
    "aspirations</w>": 36127,
    "aspire</w>": 24836,
    "aspiring</w>": 21862,
    "asports</w>": 43695,
    "asr</w>": 48052,
    "asroma</w>": 41000,
    "ass": 12664,
    "ass</w>": 5301,
    "assa</w>": 47715,
    "assad</w>": 18699,
    "assam</w>": 19930,
    "assan": 26352,
    "assange</w>": 27565,
    "assas": 9603,
    "assassin": 14366,
    "assassin</w>": 20029,
    "assassinated</w>": 40488,
    "assassination</w>": 24907,
    "assassins</w>": 34918,
    "assassinscre": 36428,
    "assassinscreed</w>": 46082,
    "assau": 7908,
    "assaul": 19596,
    "assault</w>": 9679,
    "assaulted</w>": 30785,
    "assaulting</w>": 44143,
    "asse": 3166,
    "asse</w>": 38600,
    "assel</w>": 37582,
    "assemb": 5531,
    "assemble</w>": 26169,
    "assembled</w>": 22627,
    "assemblies</w>": 47406,
    "assembling</w>": 38670,
    "assembly": 34542,
    "assembly</w>": 7059,
    "assen</w>": 38651,
    "asser": 25665,
    "asses</w>": 21596,
    "assess": 9209,
    "assess</w>": 23211,
    "assessed</w>": 44160,
    "assessing</w>": 31364,
    "assessment</w>": 10590,
    "assessments</w>": 32753,
    "asset": 48463,
    "asset</w>": 13039,
    "assets</w>": 13170,
    "assi": 2907,
    "assi</w>": 39540,
    "assie</w>": 31624,
    "assign": 14190,
    "assigned</w>": 25767,
    "assignment</w>": 17342,
    "assignments</w>": 34257,
    "assim</w>": 36394,
    "assimil": 43467,
    "assist": 26558,
    "assist</w>": 10286,
    "assistance</w>": 11685,
    "assistant</w>": 6799,
    "assistants</w>": 31054,
    "assisted</w>": 18095,
    "assisting</w>": 24243,
    "assists</w>": 12675,
    "assn</w>": 44208,
    "asso</w>": 17617,
    "assoc</w>": 18891,
    "associ": 3566,
    "associate</w>": 11777,
    "associated</w>": 11164,
    "associates</w>": 17358,
    "association</w>": 5578,
    "associations</w>": 33209,
    "assor": 38604,
    "assorted</w>": 36701,
    "assortment</w>": 43112,
    "asst</w>": 24767,
    "assu": 8328,
    "assume</w>": 19294,
    "assumed</w>": 37661,
    "assuming</w>": 29422,
    "assump": 41182,
    "assumption</w>": 40773,
    "assumptions</w>": 45948,
    "assurance</w>": 28408,
    "assure</w>": 39161,
    "assured</w>": 25591,
    "assures</w>": 41988,
    "assy": 29940,
    "assy</w>": 12963,
    "ast": 1761,
    "ast</w>": 1242,
    "asta</w>": 43269,
    "aste": 25033,
    "aste</w>": 25579,
    "aster": 11013,
    "aster</w>": 9526,
    "asteroid</w>": 32253,
    "asters</w>": 33139,
    "asth": 16684,
    "asthma</w>": 24610,
    "asthour</w>": 41238,
    "astic</w>": 15876,
    "asting</w>": 29984,
    "astle</w>": 46141,
    "asto": 47275,
    "aston": 24760,
    "aston</w>": 13879,
    "astoni": 21962,
    "astonishing</w>": 27110,
    "astonmartin</w>": 40760,
    "astor": 26391,
    "astor</w>": 47086,
    "astoria</w>": 34798,
    "astounding</w>": 37748,
    "astr": 37609,
    "astra": 47205,
    "astra</w>": 36079,
    "astral</w>": 45889,
    "astri": 31243,
    "astrid</w>": 46499,
    "astro": 8563,
    "astro</w>": 15318,
    "astrology</w>": 28526,
    "astron": 7982,
    "astronaut</w>": 18376,
    "astronauts</w>": 29733,
    "astronom": 23264,
    "astronomer</w>": 40036,
    "astronomers</w>": 44268,
    "astronomical</w>": 39775,
    "astronomy</w>": 17472,
    "astrophotography</w>": 38559,
    "astros</w>": 17598,
    "asts</w>": 10452,
    "astu": 43137,
    "astur": 45795,
    "asu": 13157,
    "asu</w>": 16001,
    "asun": 36044,
    "asure</w>": 3813,
    "asus</w>": 27269,
    "aswell</w>": 42978,
    "asx</w>": 38906,
    "asy": 8524,
    "asy</w>": 2333,
    "asylum</w>": 15638,
    "asym": 32539,
    "at": 527,
    "at</w>": 536,
    "ata</w>": 4236,
    "atable</w>": 23909,
    "atal": 24877,
    "atal</w>": 24797,
    "atan</w>": 33446,
    "atar": 20128,
    "atar</w>": 7995,
    "atari</w>": 21549,
    "atas</w>": 30057,
    "atay": 39518,
    "atc</w>": 28383,
    "atch</w>": 15938,
    "atd</w>": 33890,
    "ate": 992,
    "ate</w>": 671,
    "ateam</w>": 42784,
    "ateau</w>": 16359,
    "atec": 37352,
    "atech</w>": 31306,
    "ated": 14589,
    "ated</w>": 943,
    "atedly</w>": 24698,
    "atee</w>": 32839,
    "ateful</w>": 5419,
    "atelier</w>": 29932,
    "ately</w>": 3862,
    "atem": 17116,
    "aten</w>": 47984,
    "atene": 30405,
    "ateneo</w>": 33904,
    "ater": 18597,
    "ater</w>": 5877,
    "ateral</w>": 18819,
    "aters</w>": 22364,
    "ates": 20370,
    "ates</w>": 1150,
    "atest</w>": 1705,
    "ateur</w>": 43677,
    "atf</w>": 28013,
    "ath": 1374,
    "ath</w>": 1649,
    "atha</w>": 22530,
    "atham</w>": 23383,
    "athan": 41260,
    "athan</w>": 26701,
    "athe": 8963,
    "athed</w>": 47402,
    "atheism</w>": 25823,
    "atheist</w>": 22571,
    "atheists</w>": 47155,
    "athen": 29112,
    "athena</w>": 30705,
    "athens</w>": 13524,
    "ather": 6171,
    "ather</w>": 1817,
    "athered</w>": 34091,
    "athers</w>": 17266,
    "athi</w>": 28918,
    "athing</w>": 36069,
    "athle": 3310,
    "athlete</w>": 7388,
    "athletes</w>": 7125,
    "athletic": 33182,
    "athletic</w>": 9028,
    "athletics</w>": 7019,
    "athlon</w>": 14670,
    "athome</w>": 38217,
    "athon</w>": 4951,
    "aths</w>": 28835,
    "athy": 34488,
    "athy</w>": 13183,
    "ati": 591,
    "ati</w>": 6751,
    "atia</w>": 10908,
    "atic": 20248,
    "atic</w>": 2647,
    "atically</w>": 13558,
    "atics</w>": 15666,
    "atie</w>": 30137,
    "aties</w>": 40060,
    "atif</w>": 41592,
    "atiku</w>": 37912,
    "atile</w>": 15474,
    "atility</w>": 23373,
    "atime</w>": 20158,
    "atin": 36903,
    "atin</w>": 23047,
    "atine</w>": 39741,
    "ating": 25653,
    "ating</w>": 1074,
    "atio</w>": 35401,
    "ation": 2265,
    "ation</w>": 656,
    "ational": 14205,
    "ational</w>": 3108,
    "ationals</w>": 44593,
    "ationday</w>": 20082,
    "ations</w>": 986,
    "atis": 45456,
    "atis</w>": 41142,
    "atism</w>": 45638,
    "ative": 18422,
    "ative</w>": 1648,
    "atively</w>": 11929,
    "atives</w>": 5629,
    "ativity</w>": 25166,
    "atkins</w>": 27734,
    "atkinson</w>": 28908,
    "atl": 5411,
    "atl</w>": 10629,
    "atla": 36043,
    "atlan": 6818,
    "atlanta": 39964,
    "atlanta</w>": 6839,
    "atlantic": 28804,
    "atlantic</w>": 8189,
    "atlantis</w>": 27790,
    "atlas</w>": 15775,
    "atle": 21170,
    "atleast</w>": 33231,
    "atleti</w>": 46067,
    "atletico</w>": 27501,
    "atm</w>": 14127,
    "atmo": 8271,
    "atmosphere</w>": 10506,
    "atmospheric</w>": 24223,
    "ato": 7987,
    "ato</w>": 4364,
    "atoday</w>": 26799,
    "atom": 22418,
    "atom</w>": 24031,
    "atomic</w>": 18996,
    "atoms</w>": 41434,
    "aton": 31525,
    "aton</w>": 10012,
    "atop</w>": 17455,
    "ator": 10748,
    "ator</w>": 1962,
    "atore</w>": 28314,
    "atorial</w>": 32040,
    "atories</w>": 35678,
    "atorium</w>": 41306,
    "ators</w>": 3389,
    "atory</w>": 5920,
    "atos</w>": 41643,
    "atour</w>": 42967,
    "atown</w>": 24000,
    "atp": 38105,
    "atp</w>": 19817,
    "atr</w>": 43247,
    "atra": 20227,
    "atra</w>": 14401,
    "atravel</w>": 36981,
    "atre": 46057,
    "atri": 13882,
    "atri</w>": 38889,
    "atric": 32238,
    "atric</w>": 13652,
    "atrics</w>": 36253,
    "atrist</w>": 41879,
    "atrium</w>": 29725,
    "atrix</w>": 43003,
    "atro": 18724,
    "atroc": 36197,
    "atrocities</w>": 37551,
    "atry</w>": 28334,
    "ats": 46890,
    "ats</w>": 1032,
    "atsu</w>": 26531,
    "att": 1017,
    "att</w>": 7103,
    "atta": 7282,
    "atta</w>": 9146,
    "attach": 43676,
    "attach</w>": 35653,
    "attached</w>": 11038,
    "attachment</w>": 28638,
    "attack": 24971,
    "attack</w>": 3815,
    "attacked</w>": 12366,
    "attacker</w>": 39288,
    "attackers</w>": 47701,
    "attacking</w>": 16813,
    "attacks</w>": 7321,
    "attain</w>": 46459,
    "attar</w>": 37110,
    "attemp": 4933,
    "attempt</w>": 7409,
    "attempted</w>": 17408,
    "attempting</w>": 18195,
    "attempts</w>": 15610,
    "atten": 4084,
    "atten</w>": 32408,
    "attenborough</w>": 45860,
    "attend": 9841,
    "attend</w>": 5802,
    "attendance</w>": 11928,
    "attendant</w>": 35424,
    "attended</w>": 8140,
    "attendees</w>": 14648,
    "attending</w>": 6696,
    "attends</w>": 22248,
    "attention</w>": 4936,
    "atters</w>": 30675,
    "atthe": 21489,
    "atti": 49265,
    "atti</w>": 16235,
    "attic</w>": 26766,
    "attire</w>": 21222,
    "attitude</w>": 10648,
    "attitudes</w>": 27611,
    "attle": 14685,
    "attle</w>": 5030,
    "attn</w>": 25677,
    "attor": 8856,
    "attorney</w>": 10372,
    "attorneys</w>": 29113,
    "attrac": 7154,
    "attract</w>": 17010,
    "attracted</w>": 28493,
    "attracting</w>": 31909,
    "attraction</w>": 16807,
    "attractions</w>": 22307,
    "attractive</w>": 12231,
    "attracts</w>": 31024,
    "attribu": 24624,
    "attributed</w>": 37520,
    "attributes</w>": 40763,
    "attu</w>": 43173,
    "atty</w>": 36705,
    "atu": 15191,
    "atu</w>": 24295,
    "atuesday</w>": 34841,
    "atul": 1744,
    "atul</w>": 43948,
    "atum</w>": 48295,
    "atur": 14986,
    "aturday</w>": 29027,
    "ature": 25305,
    "ature</w>": 4490,
    "atures</w>": 7358,
    "atus</w>": 14795,
    "atv</w>": 19598,
    "atwood</w>": 45680,
    "atwork</w>": 39680,
    "atx": 34849,
    "atx</w>": 20136,
    "aty": 40974,
    "aty</w>": 33107,
    "atz</w>": 30432,
    "au": 627,
    "au</w>": 2566,
    "aua</w>": 45906,
    "aub</w>": 45938,
    "auberg": 49382,
    "aubre": 25899,
    "aubrey</w>": 34110,
    "auburn": 42269,
    "auburn</w>": 14534,
    "auc": 24489,
    "auch</w>": 43024,
    "auck": 14588,
    "auckland</w>": 16072,
    "auction": 48160,
    "auction</w>": 6462,
    "auctioned</w>": 41073,
    "auctions</w>": 24876,
    "aucus</w>": 47374,
    "aud": 16107,
    "aud</w>": 19711,
    "audi": 5091,
    "audi</w>": 10277,
    "audible</w>": 33227,
    "audience</w>": 6863,
    "audiences</w>": 22328,
    "audio": 13792,
    "audio</w>": 5766,
    "audiobook</w>": 26282,
    "audit": 12505,
    "audit</w>": 17625,
    "auditi": 37377,
    "audition</w>": 18673,
    "auditions</w>": 21134,
    "auditor</w>": 38050,
    "auditorium</w>": 15063,
    "audre": 16075,
    "audrey</w>": 18812,
    "audu": 27934,
    "audubon</w>": 40275,
    "auer</w>": 33460,
    "auf</w>": 28924,
    "aug": 15397,
    "aug</w>": 5720,
    "auga</w>": 22797,
    "augh": 28310,
    "augh</w>": 14005,
    "augmente": 48356,
    "augmented</w>": 32708,
    "augu": 2610,
    "august": 24353,
    "august</w>": 3171,
    "augusta</w>": 26144,
    "augustine</w>": 27397,
    "augustus</w>": 36835,
    "auk</w>": 19058,
    "aul": 20695,
    "aul</w>": 34391,
    "ault": 47253,
    "ault</w>": 10219,
    "aun": 10608,
    "aun</w>": 38721,
    "aunt</w>": 12685,
    "auntie</w>": 23783,
    "aunty</w>": 29528,
    "aur": 8156,
    "aur</w>": 17282,
    "aura</w>": 27728,
    "aure": 36010,
    "aureli": 35980,
    "auror": 30067,
    "aurora</w>": 13500,
    "aus": 10624,
    "aus</w>": 7630,
    "ausa</w>": 37384,
    "ausbiz</w>": 46543,
    "ausch": 33926,
    "auschwitz</w>": 36523,
    "ausopen</w>": 27831,
    "ausp": 35039,
    "auspicious</w>": 38806,
    "auspol</w>": 8241,
    "aussi": 19762,
    "aussie": 40230,
    "aussie</w>": 14424,
    "aussies</w>": 35727,
    "aust": 26301,
    "aust</w>": 25418,
    "austen</w>": 29885,
    "auster": 25030,
    "austerity</w>": 26982,
    "austin": 12845,
    "austin</w>": 5125,
    "austinmahone</w>": 34678,
    "austr": 2518,
    "australi": 13798,
    "australia</w>": 3444,
    "australian": 23630,
    "australian</w>": 6258,
    "australians</w>": 31488,
    "austri": 8946,
    "austria</w>": 11960,
    "austrian</w>": 20638,
    "ausv": 35206,
    "ausvotes</w>": 34661,
    "aut</w>": 12343,
    "auth": 2381,
    "auth</w>": 38247,
    "authent": 18158,
    "authentic": 41266,
    "authentic</w>": 10369,
    "authentication</w>": 39746,
    "authenticity</w>": 35734,
    "autho": 34552,
    "author": 14447,
    "author</w>": 4358,
    "authored</w>": 37928,
    "authori": 19207,
    "authorities</w>": 12729,
    "authority</w>": 10524,
    "authorization</w>": 48854,
    "authorized</w>": 28463,
    "authors</w>": 10765,
    "auti": 8200,
    "autism": 36256,
    "autism</w>": 11244,
    "autisma": 43324,
    "autistic</w>": 29360,
    "auto": 3917,
    "auto</w>": 5668,
    "autobiography</w>": 31509,
    "autodesk</w>": 40415,
    "autograph": 10657,
    "autograph</w>": 13722,
    "autographed</w>": 16309,
    "autographs</w>": 17376,
    "autoimmune</w>": 45509,
    "autom": 4114,
    "automate</w>": 43203,
    "automated</w>": 19022,
    "automatic</w>": 12126,
    "automatically</w>": 20725,
    "automation</w>": 12328,
    "automobi": 44813,
    "automobile</w>": 25258,
    "automotive</w>": 12607,
    "auton": 13100,
    "autonews</w>": 43975,
    "autonom": 17870,
    "autonomous</w>": 20722,
    "autonomy</w>": 39223,
    "autopsy</w>": 44436,
    "autos</w>": 31118,
    "autoshow</w>": 46788,
    "auts</w>": 21140,
    "autu": 5445,
    "autum": 31783,
    "autumn": 28940,
    "autumn</w>": 6110,
    "autumnal</w>": 35481,
    "aux": 18154,
    "aux</w>": 8909,
    "auxiliary</w>": 37778,
    "av": 722,
    "av</w>": 8484,
    "ava</w>": 12385,
    "avage</w>": 31505,
    "avail": 1651,
    "avail</w>": 16686,
    "availability</w>": 17551,
    "available</w>": 1685,
    "aval": 18012,
    "avalan": 23970,
    "avalanche</w>": 25815,
    "avalley</w>": 45082,
    "avalon</w>": 30436,
    "avan": 27971,
    "avan</w>": 33351,
    "avant</w>": 24305,
    "avar": 33423,
    "avatar</w>": 18219,
    "ave": 10062,
    "ave</w>": 4860,
    "avec</w>": 25828,
    "aved</w>": 47918,
    "avel": 46817,
    "avel</w>": 48088,
    "aven": 5963,
    "aven</w>": 32971,
    "aveng": 21935,
    "avenger</w>": 24799,
    "avengers": 39413,
    "avengers</w>": 12016,
    "avengersendgame</w>": 49342,
    "avent": 22700,
    "avenue</w>": 7042,
    "aver": 8788,
    "aver</w>": 11403,
    "average</w>": 6254,
    "averaged</w>": 37310,
    "averages</w>": 48982,
    "averaging</w>": 35266,
    "avery</w>": 20313,
    "aves</w>": 14023,
    "avfc</w>": 21304,
    "avg</w>": 19452,
    "avgeek</w>": 11114,
    "avi": 3324,
    "avi</w>": 11297,
    "avia</w>": 38710,
    "avian</w>": 24115,
    "aviation": 27717,
    "aviation</w>": 7617,
    "aviator</w>": 38921,
    "aviators</w>": 48011,
    "avici": 46192,
    "avicii</w>": 49158,
    "avid</w>": 19118,
    "avier</w>": 14598,
    "avila</w>": 45339,
    "aville</w>": 40689,
    "avin": 46204,
    "avis": 45163,
    "avis</w>": 19765,
    "aviv</w>": 22130,
    "aviva</w>": 47122,
    "aviz</w>": 27607,
    "avl": 44749,
    "avo": 4496,
    "avo</w>": 32400,
    "avoc": 12291,
    "avocado</w>": 14135,
    "avocados</w>": 48911,
    "avoi": 16797,
    "avoid": 30448,
    "avoid</w>": 5983,
    "avoidance</w>": 47983,
    "avoided</w>": 32103,
    "avoiding</w>": 22086,
    "avoids</w>": 48220,
    "avon": 22790,
    "avon</w>": 17348,
    "avril</w>": 37763,
    "avs</w>": 31896,
    "avut</w>": 44472,
    "avy</w>": 29973,
    "aw": 808,
    "aw</w>": 5557,
    "awa": 4820,
    "awa</w>": 6872,
    "await</w>": 20769,
    "awaited</w>": 20092,
    "awaiting</w>": 14872,
    "awaits</w>": 15635,
    "awak": 9776,
    "awak</w>": 41387,
    "awake</w>": 14695,
    "awaken</w>": 35412,
    "awakening</w>": 17017,
    "awakens</w>": 23191,
    "awal": 42447,
    "awal</w>": 35090,
    "awan": 48869,
    "awan</w>": 20420,
    "awar": 5745,
    "award": 36310,
    "award</w>": 2047,
    "awarded</w>": 7368,
    "awarding</w>": 37089,
    "awards": 34528,
    "awards</w>": 2320,
    "aware": 4427,
    "aware</w>": 7196,
    "awareness": 19217,
    "awareness</w>": 4823,
    "awarenessmonth</w>": 34278,
    "awarenessweek</w>": 35294,
    "away": 21088,
    "away</w>": 1520,
    "aways</w>": 12782,
    "awaz</w>": 18586,
    "awd</w>": 34846,
    "awe": 1693,
    "awe</w>": 14106,
    "aweather": 42142,
    "aweather</w>": 28681,
    "awec</w>": 38916,
    "aweed</w>": 29724,
    "awesom": 16727,
    "awesome": 30390,
    "awesome</w>": 1848,
    "awesomeness</w>": 22430,
    "awful</w>": 13617,
    "awg</w>": 46350,
    "awgs</w>": 35275,
    "awh</w>": 39566,
    "awhile</w>": 19171,
    "awi</w>": 15167,
    "awil": 47271,
    "awilliams</w>": 42163,
    "awk": 8888,
    "awk</w>": 40943,
    "awkward": 42337,
    "awkward</w>": 10304,
    "awn</w>": 46222,
    "awp</w>": 43300,
    "aws</w>": 19658,
    "awsome</w>": 47196,
    "awson</w>": 36286,
    "aww</w>": 11568,
    "awww</w>": 15634,
    "awwww</w>": 26460,
    "awx</w>": 28385,
    "ax": 3165,
    "ax</w>": 9203,
    "axe</w>": 19861,
    "axel": 47889,
    "axel</w>": 32131,
    "axes</w>": 45970,
    "axi": 30672,
    "axial</w>": 46550,
    "axis</w>": 19614,
    "axle</w>": 39003,
    "axx": 47411,
    "ay": 658,
    "ay</w>": 551,
    "aya</w>": 5917,
    "ayala</w>": 39827,
    "ayama</w>": 41194,
    "ayan": 37781,
    "ayan</w>": 16269,
    "ayana</w>": 37400,
    "ayas</w>": 40904,
    "ayat": 44902,
    "ayat</w>": 35720,
    "aye": 21661,
    "aye</w>": 12446,
    "ayer</w>": 24852,
    "ayers</w>": 42783,
    "ayesha</w>": 46570,
    "ayi</w>": 33025,
    "ayles": 44706,
    "ayne</w>": 35669,
    "ayo": 21929,
    "ayo</w>": 18708,
    "ayr": 23002,
    "ayr</w>": 36473,
    "ayrshire</w>": 32687,
    "ays</w>": 785,
    "ayu</w>": 40769,
    "ayurve": 27185,
    "ayurveda</w>": 38986,
    "ayush": 44831,
    "ayy</w>": 32514,
    "ayyy</w>": 41052,
    "az": 854,
    "az</w>": 5468,
    "aza</w>": 22883,
    "azad</w>": 37838,
    "azalea</w>": 34087,
    "azam</w>": 34727,
    "azar</w>": 27911,
    "azcardinals</w>": 48846,
    "aze": 41157,
    "aze</w>": 28485,
    "azer": 19169,
    "azerbai": 20649,
    "azerbaijan</w>": 23888,
    "azhar</w>": 47019,
    "azi": 23914,
    "azi</w>": 18452,
    "azine</w>": 29140,
    "azione</w>": 48335,
    "aziz": 41205,
    "aziz</w>": 29630,
    "azo</w>": 41227,
    "azon</w>": 36854,
    "azores</w>": 42826,
    "azte": 33270,
    "aztec</w>": 34749,
    "aztecs</w>": 49387,
    "azu": 27701,
    "azu</w>": 46963,
    "azul</w>": 39807,
    "azure</w>": 18514,
    "azwx</w>": 30262,
    "azy</w>": 24783,
    "azz": 9817,
    "azz</w>": 26453,
    "azza</w>": 22255,
    "azzi</w>": 18758,
    "azzle</w>": 39974,
    "azzo</w>": 26779,
    "azzur": 37055,
    "azzy</w>": 44534,
    "aÃ±": 23716,
    "aÃ±os</w>": 41634,
    "b": 65,
    "b</w>": 321,
    "ba": 932,
    "ba</w>": 1792,
    "baa</w>": 33004,
    "baahu": 34145,
    "baahubali</w>": 38663,
    "bab": 1202,
    "bab</w>": 19039,
    "baba</w>": 12631,
    "babe": 31177,
    "babe</w>": 7716,
    "babes</w>": 14253,
    "babies</w>": 6635,
    "babs</w>": 36217,
    "babu</w>": 21623,
    "baby": 7268,
    "baby</w>": 1794,
    "babygirl</w>": 39554,
    "babylon</w>": 31928,
    "babymetal</w>": 45013,
    "babys": 22266,
    "babysitting</w>": 34186,
    "bac": 2791,
    "bac</w>": 25867,
    "bacca</w>": 40708,
    "bach": 11773,
    "bach</w>": 8758,
    "bachchan</w>": 17690,
    "bachel": 11283,
    "bachelor": 45508,
    "bachelor</w>": 16766,
    "bachelore": 26009,
    "bachelorette</w>": 29093,
    "bacher</w>": 49211,
    "back": 1663,
    "back</w>": 893,
    "backbone</w>": 35635,
    "backdrop</w>": 20802,
    "backed</w>": 12721,
    "backer</w>": 22183,
    "backers</w>": 32934,
    "background</w>": 5994,
    "backgrounds</w>": 28215,
    "backing</w>": 14935,
    "backlash</w>": 31519,
    "backpack</w>": 14894,
    "backpacking</w>": 29524,
    "backpacks</w>": 37063,
    "backs</w>": 7562,
    "backseat</w>": 48812,
    "backstage</w>": 9236,
    "backstreet": 46337,
    "backthe": 26127,
    "backto": 18703,
    "backtoschool</w>": 28730,
    "backtothe": 43059,
    "backup</w>": 14415,
    "backward</w>": 37964,
    "backwards</w>": 21283,
    "backyard</w>": 12608,
    "bacon": 48666,
    "bacon</w>": 7104,
    "bacter": 11814,
    "bacteria</w>": 16556,
    "bacterial</w>": 26101,
    "bad": 2564,
    "bad</w>": 2103,
    "bada</w>": 37475,
    "badan</w>": 39149,
    "badass</w>": 11616,
    "baddest</w>": 38112,
    "baden</w>": 36690,
    "bader</w>": 42254,
    "badge</w>": 11301,
    "badger": 32686,
    "badger</w>": 22363,
    "badgers</w>": 22521,
    "badges</w>": 20084,
    "badlands</w>": 43192,
    "badly</w>": 13684,
    "badminton</w>": 21412,
    "badoo</w>": 33192,
    "bados</w>": 25755,
    "bae": 32834,
    "bae</w>": 6855,
    "baek": 18557,
    "baek</w>": 32702,
    "baekhyun</w>": 21572,
    "baes</w>": 46332,
    "baf": 13616,
    "baff": 35693,
    "bafta</w>": 29199,
    "bag": 3408,
    "bag</w>": 3365,
    "bage</w>": 9698,
    "bagel</w>": 28777,
    "bagels</w>": 37489,
    "baggage</w>": 31402,
    "bagged</w>": 34047,
    "bagh": 21659,
    "bagh</w>": 37271,
    "baghdad</w>": 30763,
    "bago</w>": 25105,
    "bags</w>": 6136,
    "bagu": 27749,
    "baguette</w>": 45334,
    "bah": 8372,
    "bah</w>": 16685,
    "baha": 29592,
    "baham": 43718,
    "bahamas</w>": 21224,
    "bahan</w>": 28704,
    "bahn</w>": 33452,
    "bahrain</w>": 12503,
    "bai": 6232,
    "bai</w>": 23339,
    "bail": 22933,
    "bail</w>": 16986,
    "bailey": 27535,
    "bailey</w>": 10180,
    "bain": 40784,
    "bain</w>": 21593,
    "bair": 29059,
    "baird</w>": 40474,
    "bait</w>": 18010,
    "baj": 20713,
    "baja": 40418,
    "baja</w>": 28374,
    "bajo</w>": 32619,
    "bak": 4059,
    "bak</w>": 23742,
    "bakar</w>": 41414,
    "bake": 20736,
    "bake</w>": 11878,
    "baked</w>": 10364,
    "baker": 27303,
    "baker</w>": 7743,
    "bakers": 35293,
    "bakers</w>": 40231,
    "bakersfield</w>": 40149,
    "bakery</w>": 13377,
    "bakes</w>": 43057,
    "bakhta": 44912,
    "bakhtawar": 46937,
    "bakhtawarbz</w>": 47118,
    "baking</w>": 11467,
    "baku": 46417,
    "baku</w>": 31852,
    "bal": 1398,
    "bal</w>": 2282,
    "bala</w>": 20291,
    "balaji</w>": 48694,
    "balance": 42894,
    "balance</w>": 6827,
    "balanced</w>": 15273,
    "balances</w>": 37733,
    "balancing</w>": 23541,
    "balboa</w>": 45098,
    "balcony</w>": 16169,
    "bald": 11153,
    "bald</w>": 14875,
    "baldhead</w>": 29191,
    "baldwin</w>": 16242,
    "bale": 48573,
    "bale</w>": 18873,
    "bales</w>": 42879,
    "bali": 16432,
    "bali</w>": 10900,
    "balkan</w>": 48499,
    "balkans</w>": 42987,
    "ball": 3807,
    "ball</w>": 1069,
    "balla": 42246,
    "ballad</w>": 33472,
    "ballarat</w>": 46645,
    "ballard</w>": 31750,
    "baller": 49194,
    "baller</w>": 25655,
    "ballerina</w>": 34962,
    "ballers</w>": 34173,
    "ballet</w>": 10703,
    "balli": 29406,
    "ballin": 47444,
    "ballin</w>": 33057,
    "balling</w>": 47588,
    "ballis": 46675,
    "ballistic</w>": 36667,
    "ballo": 8871,
    "ballon</w>": 36469,
    "balloon</w>": 13634,
    "balloons</w>": 18130,
    "ballot</w>": 14185,
    "ballots</w>": 35051,
    "ballpark</w>": 26080,
    "ballroom</w>": 15493,
    "balls</w>": 6927,
    "bally": 17275,
    "bally</w>": 29451,
    "balm</w>": 24962,
    "balmain</w>": 45929,
    "balo": 12395,
    "baloch</w>": 23173,
    "balochistan</w>": 21918,
    "balot": 44615,
    "balotelli</w>": 45721,
    "bals</w>": 44154,
    "balsam": 29121,
    "balsamic</w>": 32654,
    "balt</w>": 24441,
    "balti": 8400,
    "baltic</w>": 23817,
    "baltimore": 38502,
    "baltimore</w>": 9582,
    "balu": 38093,
    "bam": 6383,
    "bam</w>": 12686,
    "bama</w>": 20021,
    "bambam</w>": 34538,
    "bambi</w>": 46596,
    "bamboo": 49322,
    "bamboo</w>": 16748,
    "ban": 1159,
    "ban</w>": 2777,
    "bana</w>": 18428,
    "banan": 38410,
    "banana</w>": 8922,
    "bananas</w>": 19121,
    "banc": 39252,
    "band": 4613,
    "band</w>": 1963,
    "banda</w>": 31865,
    "bandai</w>": 42054,
    "bandana</w>": 39265,
    "bandcamp</w>": 32229,
    "banded</w>": 37804,
    "bandic": 44400,
    "bandit</w>": 27639,
    "bandits</w>": 33940,
    "bandra</w>": 41393,
    "bands</w>": 7858,
    "bandung</w>": 29512,
    "bandwagon</w>": 36432,
    "bandwidth</w>": 48859,
    "bane</w>": 9597,
    "banerjee</w>": 48102,
    "banff</w>": 29565,
    "bang": 3524,
    "bang</w>": 6907,
    "bangalore</w>": 14697,
    "banger</w>": 24872,
    "bangers</w>": 38311,
    "banging</w>": 33033,
    "bangkok</w>": 12351,
    "bangla": 10339,
    "bangla</w>": 45928,
    "bangladesh</w>": 11245,
    "bangle</w>": 37634,
    "bangor</w>": 31190,
    "bangs</w>": 27992,
    "bangtan</w>": 39131,
    "bani</w>": 19732,
    "banjo</w>": 27014,
    "bank": 7061,
    "bank</w>": 2723,
    "banker</w>": 27316,
    "bankers</w>": 30599,
    "bankholiday": 48868,
    "banking</w>": 9566,
    "bankno": 49201,
    "bankof": 39120,
    "bankrup": 21904,
    "bankrupt": 23077,
    "bankrupt</w>": 37288,
    "bankruptcy</w>": 23978,
    "banks</w>": 6367,
    "banksy</w>": 33350,
    "bann": 5304,
    "banned</w>": 12012,
    "banner</w>": 9185,
    "banners</w>": 23145,
    "banning</w>": 26246,
    "bannon</w>": 29710,
    "bano</w>": 42947,
    "banquet</w>": 14254,
    "bans</w>": 15146,
    "bant": 23301,
    "bant</w>": 46657,
    "banter</w>": 25535,
    "bao": 39487,
    "bao</w>": 20408,
    "bap": 7415,
    "bap</w>": 23754,
    "bapti": 15477,
    "baptism</w>": 36765,
    "baptist</w>": 13274,
    "baptiste</w>": 45770,
    "baptized</w>": 45400,
    "bar": 1040,
    "bar</w>": 2411,
    "bara</w>": 19345,
    "barack": 18670,
    "barack</w>": 22481,
    "barackobama</w>": 18885,
    "barak": 47419,
    "barak</w>": 16260,
    "barang": 38446,
    "barb": 24173,
    "barb</w>": 20913,
    "barbados</w>": 26992,
    "barbar": 7906,
    "barbara</w>": 10937,
    "barbarian</w>": 42530,
    "barbe": 18372,
    "barbecue</w>": 23501,
    "barber": 19517,
    "barber</w>": 12296,
    "barbershop</w>": 37707,
    "barbican</w>": 47668,
    "barbie</w>": 16923,
    "barca</w>": 22942,
    "barcel": 6134,
    "barcelon": 47820,
    "barcelona</w>": 6412,
    "barclay": 48877,
    "barclay</w>": 45276,
    "barclays</w>": 29538,
    "bard": 39812,
    "bard</w>": 17514,
    "bare": 16023,
    "bare</w>": 14318,
    "barefoot</w>": 30327,
    "barely</w>": 12684,
    "bargain</w>": 15076,
    "bargaining</w>": 41282,
    "bargains</w>": 34126,
    "barge</w>": 28272,
    "bari": 21428,
    "bari</w>": 28016,
    "barista</w>": 31078,
    "barit": 46300,
    "bark": 32333,
    "bark</w>": 16560,
    "barker</w>": 20618,
    "barking</w>": 32676,
    "barkley</w>": 30266,
    "barley</w>": 22607,
    "barlow</w>": 25483,
    "barn": 10490,
    "barn</w>": 10942,
    "barnab": 43272,
    "barnard</w>": 44332,
    "barne": 42527,
    "barnes</w>": 13102,
    "barnet</w>": 41943,
    "barnett</w>": 27650,
    "barney</w>": 24563,
    "barns</w>": 43759,
    "barnsley": 37109,
    "barnsley</w>": 32153,
    "baro": 17422,
    "baro</w>": 30817,
    "baron": 48371,
    "baron</w>": 19349,
    "baroness</w>": 45056,
    "barons</w>": 45596,
    "baroque</w>": 25065,
    "barr": 39473,
    "barr</w>": 22492,
    "barra": 28442,
    "barra</w>": 33542,
    "barrabest</w>": 41376,
    "barrac": 40835,
    "barracks</w>": 35822,
    "barre": 13840,
    "barre</w>": 38257,
    "barred</w>": 33261,
    "barrel</w>": 11703,
    "barrels</w>": 22059,
    "barren</w>": 46743,
    "barrett</w>": 18701,
    "barri": 8660,
    "barric": 29189,
    "barrie</w>": 27090,
    "barrier</w>": 15706,
    "barriers</w>": 16321,
    "barrington</w>": 48954,
    "barron</w>": 34881,
    "barrow": 42568,
    "barrow</w>": 24983,
    "barry": 18028,
    "barry</w>": 8461,
    "barrymore</w>": 49310,
    "bars</w>": 8616,
    "barstool": 44826,
    "bart": 14838,
    "bart</w>": 12870,
    "bartender</w>": 33498,
    "barthol": 48989,
    "bartlett</w>": 37130,
    "bartol": 38209,
    "barton": 48853,
    "barton</w>": 20345,
    "baru</w>": 16356,
    "barun": 38278,
    "barunsob": 41398,
    "barÃ§a</w>": 32788,
    "bas": 1244,
    "bas</w>": 11420,
    "basa</w>": 26142,
    "base": 2776,
    "base</w>": 4579,
    "baseball": 23479,
    "baseball</w>": 3470,
    "based": 35196,
    "based</w>": 2812,
    "basel": 42803,
    "basel</w>": 20903,
    "baseline</w>": 40648,
    "baseman</w>": 45910,
    "basement</w>": 14792,
    "bases</w>": 20496,
    "bash": 20462,
    "bash</w>": 10972,
    "bashing</w>": 37545,
    "bashir</w>": 42799,
    "basic": 40452,
    "basic</w>": 7696,
    "basically</w>": 9125,
    "basics</w>": 15825,
    "basil": 19225,
    "basil</w>": 14936,
    "basilica</w>": 27879,
    "basin</w>": 16117,
    "basing": 47321,
    "basis</w>": 12278,
    "baske": 3713,
    "basket</w>": 10338,
    "basketball": 40023,
    "basketball</w>": 3835,
    "baskets</w>": 27787,
    "basking</w>": 39769,
    "basque</w>": 37175,
    "bass": 22831,
    "bass</w>": 5992,
    "bassett</w>": 45992,
    "bassist</w>": 26496,
    "bast": 28092,
    "basti": 8559,
    "bastille</w>": 41874,
    "bat": 2121,
    "bat</w>": 6575,
    "bata</w>": 39277,
    "batb</w>": 33962,
    "batch</w>": 9413,
    "bate": 25034,
    "bate</w>": 28277,
    "bateman</w>": 41635,
    "bates</w>": 21727,
    "batgirl</w>": 46460,
    "bath": 6064,
    "bath</w>": 5713,
    "bathing</w>": 20144,
    "bathro": 21201,
    "bathroom</w>": 8470,
    "bathrooms</w>": 26434,
    "baths</w>": 19442,
    "bathtub</w>": 39942,
    "bathurst</w>": 36365,
    "bati": 23362,
    "bati</w>": 37589,
    "batman": 27811,
    "batman</w>": 7223,
    "baton</w>": 24331,
    "bats</w>": 14984,
    "batsman</w>": 35432,
    "batt": 2407,
    "batt</w>": 48595,
    "battalion</w>": 20820,
    "batter": 12654,
    "batter</w>": 31855,
    "battered</w>": 34375,
    "batteries</w>": 16666,
    "battersea</w>": 35839,
    "battery</w>": 7870,
    "batting</w>": 17401,
    "battle": 7344,
    "battle</w>": 3528,
    "battled</w>": 37837,
    "battlefield</w>": 16055,
    "battlefront</w>": 42214,
    "battleof": 47560,
    "battles</w>": 14213,
    "battleship</w>": 35165,
    "battling</w>": 17268,
    "bau": 6055,
    "bau</w>": 34840,
    "bauer</w>": 22903,
    "baugh</w>": 41301,
    "baum</w>": 19840,
    "bautista</w>": 31881,
    "bav": 21075,
    "bavaria</w>": 39977,
    "bavarian</w>": 44458,
    "baw": 19808,
    "bax": 21216,
    "baxter</w>": 26168,
    "bay": 3631,
    "bay</w>": 2174,
    "baya</w>": 31573,
    "bayan</w>": 43895,
    "bayarea</w>": 28260,
    "bayer": 48548,
    "bayer</w>": 29183,
    "bayern</w>": 14666,
    "baylor</w>": 21721,
    "bayou</w>": 33955,
    "bays</w>": 40156,
    "baz": 10430,
    "baz</w>": 25268,
    "bazaar</w>": 20070,
    "bazar</w>": 49298,
    "bb": 1174,
    "bb</w>": 3529,
    "bba</w>": 27762,
    "bball</w>": 15664,
    "bbb</w>": 33535,
    "bbc": 5123,
    "bbc</w>": 5188,
    "bbcc": 39052,
    "bbce": 33818,
    "bbcnews</w>": 29370,
    "bbcone</w>": 28259,
    "bbcqt</w>": 37343,
    "bbcr</w>": 35802,
    "bbcra": 17115,
    "bbcradi": 49213,
    "bbcradio</w>": 22876,
    "bbcsport</w>": 49321,
    "bbcspringwatch</w>": 37358,
    "bbctwo</w>": 40395,
    "bbcworld</w>": 47340,
    "bbe</w>": 37559,
    "bbed</w>": 9077,
    "bber</w>": 7933,
    "bbers</w>": 36494,
    "bbhutto": 28085,
    "bbhuttozardari</w>": 28135,
    "bbi</w>": 37047,
    "bbin</w>": 38553,
    "bbing</w>": 9787,
    "bbins</w>": 42504,
    "bbl</w>": 21961,
    "bble": 26570,
    "bble</w>": 5924,
    "bbled</w>": 37626,
    "bbles</w>": 18093,
    "bblo": 21231,
    "bbloggers</w>": 26614,
    "bbly</w>": 43031,
    "bbm</w>": 25382,
    "bbmas</w>": 22145,
    "bbn</w>": 28427,
    "bbnaija</w>": 20984,
    "bbo</w>": 21892,
    "bbq": 41270,
    "bbq</w>": 6726,
    "bbs</w>": 10002,
    "bbuk</w>": 45978,
    "bby": 11166,
    "bby</w>": 3810,
    "bc": 3116,
    "bc</w>": 2162,
    "bcc</w>": 41509,
    "bcci</w>": 36138,
    "bce</w>": 36510,
    "bcfc</w>": 34359,
    "bch</w>": 36684,
    "bcn</w>": 25766,
    "bcoz</w>": 46373,
    "bcpoli</w>": 24389,
    "bcs</w>": 24909,
    "bcu</w>": 28299,
    "bd": 24358,
    "bd</w>": 11165,
    "bday": 33022,
    "bday</w>": 5781,
    "bdg</w>": 48418,
    "bds</w>": 26732,
    "be": 571,
    "be</w>": 655,
    "bea": 21886,
    "bea</w>": 20925,
    "beach": 6068,
    "beach</w>": 2117,
    "beaches</w>": 12183,
    "beachlife</w>": 43824,
    "beacon": 36883,
    "beacon</w>": 18858,
    "beacons</w>": 39395,
    "bead": 31621,
    "bead</w>": 23557,
    "beaded</w>": 26661,
    "beads</w>": 14099,
    "beagle</w>": 30044,
    "beak</w>": 36498,
    "beal</w>": 45769,
    "beale</w>": 39717,
    "beam": 35339,
    "beam</w>": 13663,
    "beams</w>": 23993,
    "bean": 16471,
    "bean</w>": 5328,
    "beanie</w>": 21534,
    "beans</w>": 8302,
    "bear": 6375,
    "bear</w>": 4298,
    "bearable</w>": 38608,
    "bearcats</w>": 33242,
    "beard": 26157,
    "beard</w>": 9052,
    "bearded</w>": 28459,
    "beardown</w>": 43687,
    "beards</w>": 33020,
    "bearer</w>": 30686,
    "bearers</w>": 47986,
    "bearing</w>": 18370,
    "bearings</w>": 42083,
    "bearish</w>": 34829,
    "bears</w>": 6182,
    "beasley</w>": 43349,
    "beast": 20847,
    "beast</w>": 6957,
    "beastmode</w>": 43076,
    "beasts</w>": 21771,
    "beat": 3774,
    "beat</w>": 3018,
    "beaten</w>": 10864,
    "beater</w>": 41974,
    "beati": 44386,
    "beating</w>": 10078,
    "beatles</w>": 11961,
    "beatport</w>": 31421,
    "beatrice</w>": 36922,
    "beats</w>": 6289,
    "beatthe": 40550,
    "beatty</w>": 39903,
    "beatz</w>": 33363,
    "beau": 1016,
    "beau</w>": 14298,
    "beaufort</w>": 45423,
    "beaumont</w>": 32857,
    "beaut</w>": 24559,
    "beauti": 1154,
    "beauties</w>": 14874,
    "beautiful": 13662,
    "beautiful</w>": 1215,
    "beautifully</w>": 10627,
    "beauty": 12881,
    "beauty</w>": 2488,
    "beav": 23260,
    "beaver": 26432,
    "beaver</w>": 22874,
    "beavers</w>": 34513,
    "beavs</w>": 43909,
    "bebe</w>": 23331,
    "bec": 6899,
    "bec</w>": 10773,
    "became</w>": 5464,
    "because": 32714,
    "because</w>": 1631,
    "becca</w>": 27088,
    "bech": 44055,
    "beck": 8256,
    "beck</w>": 10396,
    "becker</w>": 26918,
    "beckett</w>": 27249,
    "beckham</w>": 18764,
    "becky": 32406,
    "becky</w>": 18921,
    "become</w>": 2989,
    "becomes</w>": 6766,
    "becoming</w>": 6208,
    "bed": 4152,
    "bed</w>": 2722,
    "bedding</w>": 31761,
    "bedford</w>": 20779,
    "bedi</w>": 39181,
    "bedro": 18415,
    "bedroom</w>": 8411,
    "bedrooms</w>": 23996,
    "beds</w>": 13914,
    "bedside</w>": 47473,
    "bedtime</w>": 22115,
    "bee": 6097,
    "bee</w>": 5028,
    "beech": 32733,
    "beech</w>": 27596,
    "beef": 21703,
    "beef</w>": 6529,
    "beek</w>": 37915,
    "been": 33986,
    "been</w>": 1025,
    "beep</w>": 33432,
    "beer": 8885,
    "beer</w>": 2544,
    "beers</w>": 10907,
    "bees": 36249,
    "bees</w>": 9100,
    "beet": 12582,
    "beet</w>": 28621,
    "beethoven</w>": 23656,
    "beetle</w>": 16534,
    "beetles</w>": 36317,
    "beetro": 29251,
    "beetroot</w>": 31638,
    "beets</w>": 36087,
    "before": 20898,
    "before</w>": 1348,
    "beg": 2219,
    "beg</w>": 22401,
    "began</w>": 8636,
    "begg": 36769,
    "begging</w>": 25371,
    "begin": 19197,
    "begin</w>": 4947,
    "beginner</w>": 24351,
    "beginners</w>": 21930,
    "beginning</w>": 5791,
    "beginnings</w>": 22581,
    "begins</w>": 4635,
    "begs</w>": 43531,
    "begun</w>": 10514,
    "beh": 21971,
    "beh</w>": 41612,
    "beha": 5737,
    "behalf</w>": 11470,
    "behave</w>": 28825,
    "behaved</w>": 41617,
    "behavi": 6149,
    "behaving</w>": 40745,
    "behavior</w>": 10461,
    "behavioral</w>": 25135,
    "behaviors</w>": 37741,
    "behaviour</w>": 14655,
    "behavioural</w>": 46019,
    "behe": 42329,
    "behin": 2335,
    "behind</w>": 2403,
    "behindthe": 21104,
    "behindthescenes</w>": 26253,
    "behold</w>": 15929,
    "bei": 38991,
    "bei</w>": 23227,
    "beige</w>": 26677,
    "beij": 11547,
    "beijing</w>": 11796,
    "bein": 39117,
    "bein</w>": 24168,
    "being": 13481,
    "being</w>": 1265,
    "beings</w>": 17998,
    "beingsalmankhan</w>": 19637,
    "beir": 20176,
    "beirut</w>": 22352,
    "beit</w>": 26963,
    "bek": 46846,
    "bek</w>": 26135,
    "bekind</w>": 46691,
    "bel": 1308,
    "bel</w>": 3543,
    "bela</w>": 30555,
    "belarus</w>": 30849,
    "belated</w>": 20256,
    "belfast": 35100,
    "belfast</w>": 10015,
    "belgi": 7001,
    "belgian</w>": 15008,
    "belgium</w>": 10239,
    "belgrade</w>": 30502,
    "beli": 1859,
    "beli</w>": 45842,
    "belichick</w>": 46132,
    "belie": 20854,
    "beliebers</w>": 27714,
    "belief</w>": 14802,
    "beliefs</w>": 20575,
    "believ": 4972,
    "believe": 15819,
    "believe</w>": 2649,
    "believed</w>": 13380,
    "believein": 24294,
    "believeinfilm</w>": 37375,
    "believer</w>": 26057,
    "believers</w>": 28434,
    "believes</w>": 12017,
    "believing</w>": 19551,
    "belinda</w>": 44415,
    "belize</w>": 27990,
    "bell": 5417,
    "bell</w>": 3718,
    "bella": 18282,
    "bella</w>": 10418,
    "bellamy</w>": 34461,
    "bellator</w>": 31985,
    "belle": 13587,
    "belle</w>": 11496,
    "belles</w>": 40678,
    "bellevue</w>": 32715,
    "belli": 43335,
    "bellletstalk</w>": 42695,
    "bello</w>": 21954,
    "bells</w>": 12811,
    "bellum</w>": 35493,
    "belly": 25901,
    "belly</w>": 10404,
    "belmont</w>": 25612,
    "belo": 8379,
    "belo</w>": 41649,
    "belong": 16453,
    "belong</w>": 13596,
    "belonged</w>": 39893,
    "belonging</w>": 28193,
    "belongs</w>": 14395,
    "beloved</w>": 9363,
    "below</w>": 3788,
    "bels</w>": 43127,
    "belt": 36416,
    "belt</w>": 7373,
    "belts</w>": 21888,
    "belvedere</w>": 48003,
    "ben": 1465,
    "ben</w>": 3518,
    "bena</w>": 46249,
    "bench": 17770,
    "bench</w>": 8771,
    "benches</w>": 36349,
    "benchmark</w>": 31775,
    "bend": 22100,
    "bend</w>": 13332,
    "bender</w>": 22551,
    "bendigo</w>": 48197,
    "bending</w>": 33897,
    "bene": 12091,
    "bene</w>": 47151,
    "beneath</w>": 16850,
    "bened": 13216,
    "benedic": 24402,
    "benedict": 47896,
    "benedict</w>": 18027,
    "benef": 3260,
    "benefici": 38593,
    "beneficial</w>": 24660,
    "beneficiaries</w>": 42160,
    "benefit</w>": 6399,
    "benefited</w>": 48266,
    "benefiting</w>": 29474,
    "benefits</w>": 5465,
    "benefitting</w>": 47222,
    "benevol": 47060,
    "benfica</w>": 33873,
    "beng": 6962,
    "bengal": 17404,
    "bengal</w>": 16374,
    "bengali</w>": 33774,
    "bengals</w>": 23737,
    "bengaluru</w>": 21707,
    "benghazi</w>": 25967,
    "benin</w>": 40296,
    "benitez</w>": 46711,
    "benjam": 10550,
    "benjamin": 38647,
    "benjamin</w>": 12131,
    "benji</w>": 43548,
    "benn</w>": 39097,
    "bennet</w>": 48536,
    "bennett</w>": 12186,
    "benny": 42369,
    "benny</w>": 20595,
    "beno": 35268,
    "benoit</w>": 44373,
    "benson</w>": 19578,
    "bent": 9809,
    "bent</w>": 18369,
    "bentley</w>": 16859,
    "benton</w>": 30812,
    "benz": 27937,
    "benz</w>": 13470,
    "ber": 867,
    "ber</w>": 1516,
    "bera</w>": 32802,
    "bere": 17458,
    "bered</w>": 9193,
    "beren": 33654,
    "beret</w>": 41658,
    "berg": 12022,
    "berg</w>": 3294,
    "bergen</w>": 22918,
    "berger": 35933,
    "berger</w>": 13873,
    "bergh</w>": 35120,
    "bergman</w>": 42597,
    "bergs</w>": 43592,
    "berk": 15633,
    "berke": 14639,
    "berkeley": 46049,
    "berkeley</w>": 16667,
    "berkshire</w>": 27300,
    "berlin": 23532,
    "berlin</w>": 5891,
    "berman</w>": 21514,
    "bermu": 21032,
    "bermuda</w>": 24644,
    "bern": 9195,
    "bern</w>": 18382,
    "bernade": 46242,
    "bernar": 11962,
    "bernard</w>": 14579,
    "bernardino</w>": 35328,
    "bernardo": 27137,
    "bernardo</w>": 28696,
    "bernardokath</w>": 29081,
    "bernat": 40578,
    "berni": 18798,
    "bernie": 40093,
    "bernie</w>": 10503,
    "berniesanders</w>": 23745,
    "bernstein</w>": 33936,
    "berra</w>": 15089,
    "berries</w>": 8319,
    "berry": 15334,
    "berry</w>": 3488,
    "bers</w>": 6408,
    "berser": 39037,
    "bert": 17340,
    "bert</w>": 2358,
    "berta</w>": 45187,
    "berth</w>": 28317,
    "bertie</w>": 47182,
    "berto</w>": 34073,
    "bertr": 36962,
    "bertrand</w>": 41594,
    "berts</w>": 30205,
    "berty</w>": 35973,
    "berwick</w>": 40407,
    "bery</w>": 11411,
    "bes": 26911,
    "bes</w>": 3635,
    "beside</w>": 13519,
    "besides</w>": 17596,
    "bespoke</w>": 15612,
    "bess</w>": 43791,
    "best": 3419,
    "best</w>": 949,
    "bestbuy</w>": 29749,
    "bestest</w>": 31199,
    "bestfan": 23880,
    "bestfanarmy</w>": 24590,
    "bestfriend": 29832,
    "bestfriend</w>": 11856,
    "bestfriends</w>": 23555,
    "besti": 35210,
    "bestie</w>": 17188,
    "besties</w>": 27346,
    "besto": 28615,
    "bestof": 27892,
    "bestof</w>": 39533,
    "bestseller</w>": 25841,
    "bestselling</w>": 28632,
    "bet": 1051,
    "bet</w>": 4430,
    "beta": 43188,
    "beta</w>": 9505,
    "betes</w>": 10255,
    "beth": 9993,
    "beth</w>": 4892,
    "bethan": 18781,
    "bethany": 39130,
    "bethany</w>": 27952,
    "bethe": 12624,
    "bethel</w>": 33410,
    "bethesda</w>": 32527,
    "bethle": 30760,
    "bethlehem</w>": 31827,
    "betis</w>": 45590,
    "beto</w>": 33721,
    "betra": 18436,
    "betrayal</w>": 33171,
    "betrayed</w>": 35692,
    "bets</w>": 17107,
    "betsy</w>": 28946,
    "bett": 17715,
    "bett</w>": 20489,
    "betta</w>": 36387,
    "bette</w>": 35855,
    "better": 10320,
    "better</w>": 1539,
    "bettertogether</w>": 47392,
    "betting</w>": 14319,
    "betts</w>": 38637,
    "betty": 36175,
    "betty</w>": 14350,
    "between</w>": 1957,
    "beu": 38660,
    "bev": 40324,
    "bev</w>": 30968,
    "bever": 9924,
    "beverage</w>": 18694,
    "beverages</w>": 28521,
    "beverley</w>": 39165,
    "beverly": 30906,
    "beverly</w>": 16728,
    "beverlyhills</w>": 45363,
    "beware</w>": 14532,
    "bewithyou</w>": 36787,
    "bex": 18676,
    "bex</w>": 24748,
    "bexhill</w>": 49200,
    "bey": 3234,
    "bey</w>": 6767,
    "beyon": 11447,
    "beyonce</w>": 16632,
    "beyoncÃ©</w>": 19219,
    "beyond": 22246,
    "beyond</w>": 4432,
    "bez": 28592,
    "bez</w>": 46764,
    "bezos</w>": 45000,
    "bf": 19858,
    "bf</w>": 7990,
    "bfc</w>": 37183,
    "bff</w>": 11984,
    "bffs</w>": 31462,
    "bfi</w>": 34244,
    "bg": 16674,
    "bg</w>": 11295,
    "bgc</w>": 47598,
    "bgs</w>": 47963,
    "bgt</w>": 40665,
    "bh": 9930,
    "bh</w>": 13603,
    "bha": 6144,
    "bha</w>": 33068,
    "bhafc</w>": 30779,
    "bhagat</w>": 49136,
    "bhai": 48370,
    "bhai</w>": 20508,
    "bhak": 34501,
    "bham": 31874,
    "bham</w>": 23491,
    "bhan": 27356,
    "bhand": 48679,
    "bhar": 9108,
    "bharat": 27454,
    "bharat</w>": 17430,
    "bharti</w>": 46803,
    "bhat": 23784,
    "bhatt</w>": 36143,
    "bhav": 44950,
    "bhi": 28943,
    "bhi</w>": 21955,
    "bhk</w>": 45070,
    "bhm</w>": 38741,
    "bho": 19721,
    "bhopal</w>": 44573,
    "bhp</w>": 29776,
    "bhs</w>": 29195,
    "bhu": 9172,
    "bhuban": 38729,
    "bhubanes": 41213,
    "bhubaneswar</w>": 45888,
    "bhushan</w>": 40884,
    "bhutan</w>": 32391,
    "bhutto</w>": 30153,
    "bi": 717,
    "bi</w>": 3035,
    "bia</w>": 3841,
    "biaf": 26961,
    "biafra</w>": 36355,
    "bian": 19531,
    "bian</w>": 9027,
    "bianca</w>": 25854,
    "bianchi</w>": 45720,
    "bians</w>": 28141,
    "bias</w>": 11268,
    "biased</w>": 22178,
    "bib": 44607,
    "bib</w>": 21022,
    "bibi</w>": 31182,
    "bibl": 20912,
    "bible": 26738,
    "bible</w>": 7583,
    "bibli": 23465,
    "biblical</w>": 22841,
    "biblio": 49131,
    "bic": 5960,
    "bic</w>": 10675,
    "bice": 35589,
    "biceps</w>": 46735,
    "bick": 27238,
    "bicy": 9247,
    "bicycle</w>": 11652,
    "bicycles</w>": 31326,
    "bid": 21035,
    "bid</w>": 5553,
    "bidding</w>": 23237,
    "bide</w>": 45178,
    "biden</w>": 19451,
    "bids</w>": 16148,
    "bie": 5561,
    "bie</w>": 4173,
    "bieber": 48725,
    "bieber</w>": 7535,
    "bien": 19176,
    "bien</w>": 25742,
    "biennale</w>": 33776,
    "biennial</w>": 36609,
    "bier": 27226,
    "bier</w>": 23508,
    "bies</w>": 7867,
    "big": 1915,
    "big</w>": 1205,
    "bigbaldhead</w>": 30325,
    "bigbang": 41680,
    "bigbang</w>": 23734,
    "bigdata</w>": 9440,
    "bige": 37762,
    "bigfoot</w>": 37095,
    "bigg": 15312,
    "bigg</w>": 35399,
    "biggboss</w>": 27056,
    "bigger</w>": 6806,
    "biggest": 19483,
    "biggest</w>": 3505,
    "biggie</w>": 28392,
    "biggs</w>": 46507,
    "bigh": 18106,
    "bighit</w>": 35508,
    "bigo": 14278,
    "bigolive</w>": 20735,
    "bigotry</w>": 37269,
    "bigre": 36330,
    "bih</w>": 33471,
    "bihar</w>": 22849,
    "bij": 42478,
    "bik": 30306,
    "bike": 11686,
    "bike</w>": 3701,
    "biker": 36100,
    "biker</w>": 23449,
    "bikers</w>": 29468,
    "bikes</w>": 9227,
    "bikin": 12638,
    "biking</w>": 19157,
    "bikini</w>": 14531,
    "bil": 3092,
    "bil</w>": 20506,
    "bilateral</w>": 25599,
    "bilbao</w>": 34802,
    "bild</w>": 35512,
    "bile</w>": 25943,
    "bilingual</w>": 29623,
    "bilities</w>": 13582,
    "bility</w>": 4694,
    "bill": 4444,
    "bill</w>": 2886,
    "billboard</w>": 10856,
    "billboards</w>": 34741,
    "billed</w>": 37558,
    "billi": 7693,
    "billie</w>": 23990,
    "billing</w>": 31797,
    "billings</w>": 43615,
    "billion": 14520,
    "billion</w>": 5729,
    "billionaire</w>": 19475,
    "billionaires</w>": 41590,
    "billions</w>": 20742,
    "bills</w>": 9810,
    "billsmafia</w>": 48845,
    "billy": 15626,
    "billy</w>": 6814,
    "bilt": 44770,
    "bilt</w>": 26654,
    "bim": 46737,
    "bim</w>": 24775,
    "bin": 4849,
    "bin</w>": 5346,
    "binance</w>": 43520,
    "binary</w>": 23497,
    "bind</w>": 44513,
    "binder</w>": 30541,
    "binding</w>": 21287,
    "bine</w>": 34848,
    "bing": 24818,
    "bing</w>": 5665,
    "binge</w>": 22600,
    "bingham": 43785,
    "bingham</w>": 47296,
    "bingo</w>": 18418,
    "bino": 29172,
    "bino</w>": 24313,
    "bins</w>": 26934,
    "bint": 43647,
    "bio": 2830,
    "bio</w>": 5162,
    "biode": 43502,
    "biodegradable</w>": 47740,
    "biodiversity</w>": 17428,
    "biof": 45158,
    "biographical</w>": 49232,
    "biography</w>": 15423,
    "biological</w>": 18821,
    "biologist</w>": 35149,
    "biology</w>": 9796,
    "biom": 13010,
    "biomar": 44549,
    "biomass</w>": 36746,
    "biome": 26218,
    "biomed": 29280,
    "biomedical</w>": 33117,
    "bionic</w>": 46201,
    "biop": 15009,
    "biopic</w>": 27942,
    "bios</w>": 48505,
    "biotech</w>": 22514,
    "biotechnology</w>": 40375,
    "biotic</w>": 33773,
    "biotics</w>": 41371,
    "bious</w>": 31845,
    "bipartisan</w>": 32266,
    "bipolar</w>": 37097,
    "bique</w>": 27809,
    "bir": 921,
    "bir</w>": 16284,
    "birch": 31569,
    "birch</w>": 22907,
    "bird": 6908,
    "bird</w>": 3329,
    "birdie</w>": 29612,
    "birdies</w>": 45618,
    "birding</w>": 15851,
    "birdman</w>": 41915,
    "birdphotography</w>": 47999,
    "birds": 41951,
    "birds</w>": 4337,
    "birdwatching</w>": 33497,
    "birk": 48289,
    "birken": 40661,
    "birmin": 37482,
    "birmingham": 38580,
    "birmingham</w>": 7720,
    "birth": 1128,
    "birth</w>": 5397,
    "birthday": 7381,
    "birthday</w>": 1166,
    "birthdays</w>": 17954,
    "birthplace</w>": 31429,
    "biryani</w>": 46489,
    "bis": 5064,
    "bis</w>": 14461,
    "biscu": 11532,
    "biscuit</w>": 18731,
    "biscuits</w>": 18248,
    "bisexual</w>": 36829,
    "bish": 33690,
    "bish</w>": 31461,
    "bishop": 20625,
    "bishop</w>": 8024,
    "bishops</w>": 31579,
    "bison</w>": 19741,
    "bistro</w>": 21770,
    "bit": 3010,
    "bit</w>": 2010,
    "bitcoin": 30848,
    "bitcoin</w>": 6366,
    "bite</w>": 41613,
    "biting</w>": 23016,
    "bits</w>": 7747,
    "bitt</w>": 39251,
    "bius</w>": 45525,
    "bix": 46579,
    "biz": 8212,
    "biz</w>": 5431,
    "biza</w>": 47013,
    "bizar": 14886,
    "bizarre</w>": 16965,
    "bizhour</w>": 39462,
    "bizitalk</w>": 34929,
    "bj": 4592,
    "bj</w>": 18229,
    "bjj</w>": 27437,
    "bjor": 26525,
    "bjp": 37264,
    "bjp</w>": 6178,
    "bk": 15099,
    "bk</w>": 14083,
    "bkk</w>": 36433,
    "bl": 833,
    "bl</w>": 9467,
    "bla": 2205,
    "bla</w>": 19630,
    "blac": 21008,
    "black": 2025,
    "black</w>": 1449,
    "blackand": 12809,
    "blackandwhite": 23688,
    "blackandwhite</w>": 19506,
    "blackandwhitephotography</w>": 27544,
    "blackberry</w>": 16470,
    "blackbird</w>": 38526,
    "blackburn</w>": 23789,
    "blackfish</w>": 42193,
    "blackfriday</w>": 16445,
    "blackgirl": 43591,
    "blackhawks</w>": 19203,
    "blackhistory</w>": 46982,
    "blackhistorymonth</w>": 20135,
    "blacklist</w>": 30295,
    "blacklivesmatter</w>": 23467,
    "blackmail</w>": 47295,
    "blackops</w>": 43519,
    "blackout</w>": 21733,
    "blackpanther</w>": 36592,
    "blackpink</w>": 20339,
    "blackpool</w>": 21031,
    "blacks</w>": 16351,
    "blackwell</w>": 42642,
    "blad</w>": 36635,
    "bladder</w>": 33593,
    "blade</w>": 10264,
    "blades</w>": 16893,
    "blah</w>": 29212,
    "blaine</w>": 32457,
    "blair": 31824,
    "blair</w>": 14749,
    "blake": 20229,
    "blake</w>": 9579,
    "blame</w>": 10695,
    "blamed</w>": 32906,
    "blames</w>": 27841,
    "blaming</w>": 29287,
    "blan": 4609,
    "blanc": 30936,
    "blanc</w>": 13301,
    "blanca</w>": 40670,
    "blanchard</w>": 40177,
    "blanche</w>": 34875,
    "blanchett</w>": 49378,
    "blanco</w>": 26801,
    "bland": 44372,
    "bland</w>": 30799,
    "blank</w>": 15134,
    "blanket</w>": 12878,
    "blankets</w>": 24042,
    "blanks</w>": 48599,
    "blasio</w>": 35553,
    "blasphe": 36622,
    "blast": 46349,
    "blast</w>": 5964,
    "blasted</w>": 38976,
    "blaster</w>": 36341,
    "blasting</w>": 26178,
    "blasts</w>": 23067,
    "blat": 22048,
    "blatant</w>": 41391,
    "blatt</w>": 39138,
    "blau": 45307,
    "blaz": 43413,
    "blaze</w>": 15497,
    "blazer</w>": 17606,
    "blazers</w>": 16984,
    "blazing</w>": 25267,
    "bldg</w>": 22981,
    "ble": 1447,
    "ble</w>": 1059,
    "bleach</w>": 27034,
    "bleak</w>": 40355,
    "bled</w>": 12006,
    "bleed": 23027,
    "bleed</w>": 24791,
    "bleedblue</w>": 39160,
    "bleeding</w>": 20311,
    "bleeds</w>": 47339,
    "blen": 25651,
    "blend</w>": 10780,
    "blended</w>": 25813,
    "blender</w>": 25066,
    "blending</w>": 34307,
    "blends</w>": 28572,
    "bler": 31305,
    "bler</w>": 11979,
    "blers</w>": 26930,
    "bles</w>": 5763,
    "bless": 9640,
    "bless</w>": 5387,
    "blessed</w>": 4411,
    "blessing</w>": 10729,
    "blessings</w>": 11185,
    "bleu</w>": 30114,
    "blew</w>": 18176,
    "bley</w>": 43176,
    "bli": 1450,
    "bli</w>": 28051,
    "blin": 9678,
    "blin</w>": 5406,
    "blind": 17248,
    "blind</w>": 8351,
    "blinded</w>": 49149,
    "blindness</w>": 38812,
    "blinds</w>": 32449,
    "bling": 39764,
    "bling</w>": 7097,
    "blink</w>": 18976,
    "bliss": 28531,
    "bliss</w>": 12893,
    "blissful</w>": 42145,
    "blit": 39327,
    "blitz": 42151,
    "blitz</w>": 17548,
    "blizz": 13075,
    "blizzard</w>": 16111,
    "blk": 42950,
    "blk</w>": 22872,
    "blm</w>": 30957,
    "bln</w>": 47348,
    "blo": 1204,
    "blo</w>": 25505,
    "blob</w>": 49312,
    "bloc</w>": 30961,
    "block": 4638,
    "block</w>": 4593,
    "blockade</w>": 33489,
    "blockbuster</w>": 19939,
    "blockchain</w>": 6653,
    "blocked</w>": 9106,
    "blocker</w>": 44767,
    "blocking</w>": 12652,
    "blocks</w>": 10113,
    "blog": 16376,
    "blog</w>": 2589,
    "blogg": 33282,
    "blogged</w>": 41380,
    "blogger": 21352,
    "blogger</w>": 7806,
    "bloggerrt</w>": 48898,
    "bloggers</w>": 11627,
    "blogging</w>": 18090,
    "blogpost</w>": 41842,
    "blogs</w>": 16682,
    "bloke</w>": 24384,
    "blom": 48996,
    "blon": 7958,
    "blond</w>": 32426,
    "blonde</w>": 10711,
    "blondes</w>": 45130,
    "blondie</w>": 39236,
    "bloo": 2373,
    "blood": 9231,
    "blood</w>": 3590,
    "blooded</w>": 41946,
    "bloodh": 48480,
    "bloods</w>": 39539,
    "bloody": 38568,
    "bloody</w>": 9468,
    "bloom": 7311,
    "bloom</w>": 10257,
    "bloomberg": 43109,
    "bloomberg</w>": 21238,
    "bloomfield</w>": 40342,
    "blooming": 45175,
    "blooming</w>": 19266,
    "bloomington</w>": 34731,
    "blooms</w>": 21439,
    "bloss": 10017,
    "blossom</w>": 14472,
    "blossoms</w>": 21916,
    "blot</w>": 41710,
    "blou": 44506,
    "blouse</w>": 23525,
    "blow": 15230,
    "blow</w>": 10211,
    "blower</w>": 25832,
    "blowing</w>": 12087,
    "blown</w>": 11848,
    "blowout</w>": 34857,
    "blows</w>": 21063,
    "blr</w>": 47250,
    "bls</w>": 39458,
    "blu": 1263,
    "blu</w>": 10273,
    "blue": 3829,
    "blue</w>": 1746,
    "bluebells</w>": 47150,
    "blueberries</w>": 29551,
    "blueberry</w>": 18251,
    "bluebird</w>": 40747,
    "bluec": 43194,
    "bluef": 41174,
    "bluegrass</w>": 26241,
    "bluejays</w>": 18684,
    "blueprint</w>": 30594,
    "blues": 17566,
    "blues</w>": 5159,
    "blueslyrix</w>": 47068,
    "bluet": 13469,
    "bluetooth</w>": 14052,
    "bluewave</w>": 40025,
    "bluff</w>": 27232,
    "bluffs</w>": 48844,
    "blum</w>": 34818,
    "blumen": 38714,
    "blun": 34472,
    "blunt</w>": 19305,
    "blur": 12102,
    "blur</w>": 27976,
    "bluray</w>": 36818,
    "blurred</w>": 38013,
    "blurry</w>": 21977,
    "blush</w>": 22889,
    "blvd</w>": 12578,
    "bly": 20930,
    "bly</w>": 4426,
    "bm": 4773,
    "bm</w>": 15916,
    "bma</w>": 42573,
    "bmc</w>": 27807,
    "bmi</w>": 40642,
    "bmo</w>": 39083,
    "bms</w>": 34074,
    "bmw": 26637,
    "bmw</w>": 7869,
    "bmx</w>": 22535,
    "bn": 10496,
    "bn</w>": 7992,
    "bnb</w>": 20010,
    "bnha</w>": 49336,
    "bnp</w>": 47910,
    "bnw</w>": 35903,
    "bo": 647,
    "bo</w>": 2525,
    "boa</w>": 14732,
    "boar": 7837,
    "boar</w>": 35473,
    "board": 10419,
    "board</w>": 1972,
    "boarded</w>": 43052,
    "boarder</w>": 37414,
    "boardgame</w>": 47829,
    "boardgames</w>": 32646,
    "boarding</w>": 10086,
    "boardroom</w>": 47937,
    "boards</w>": 7963,
    "boardwalk</w>": 29043,
    "boast</w>": 44467,
    "boasts</w>": 30309,
    "boat": 12426,
    "boat</w>": 4440,
    "boath": 45461,
    "boating</w>": 21951,
    "boats</w>": 10080,
    "boatsales</w>": 46244,
    "bob": 8444,
    "bob</w>": 4423,
    "boba</w>": 39948,
    "bobb": 16891,
    "bobble</w>": 38796,
    "bobblehead</w>": 33451,
    "bobby": 17847,
    "bobby</w>": 7816,
    "bobc": 26153,
    "bobcat</w>": 37896,
    "bobcats</w>": 27568,
    "bobo</w>": 38939,
    "bobs</w>": 45533,
    "boc": 27307,
    "boc</w>": 39042,
    "boca</w>": 26094,
    "bock</w>": 24961,
    "bod": 17904,
    "bod</w>": 26340,
    "boda</w>": 42030,
    "bode": 28452,
    "bode</w>": 40429,
    "bodega</w>": 47350,
    "bodied</w>": 36892,
    "bodies</w>": 9799,
    "bodily</w>": 49119,
    "body": 7132,
    "body</w>": 1774,
    "bodybuilding</w>": 24538,
    "bodyguard</w>": 35565,
    "boe": 23476,
    "boe</w>": 21773,
    "boeh": 38002,
    "boehner</w>": 44599,
    "boeing": 48135,
    "boeing</w>": 11857,
    "boer": 44889,
    "boer</w>": 40768,
    "bog": 23426,
    "bog</w>": 28318,
    "bogo</w>": 35769,
    "bogota</w>": 47059,
    "bogus</w>": 42907,
    "boh": 43238,
    "bohe": 40541,
    "bohemi": 21552,
    "bohemian</w>": 25753,
    "boho</w>": 25444,
    "boi": 37129,
    "boi</w>": 12673,
    "boil</w>": 31332,
    "boiled</w>": 23886,
    "boiler": 28212,
    "boiler</w>": 25615,
    "boiling</w>": 32019,
    "bois": 47742,
    "bois</w>": 21640,
    "boise</w>": 23304,
    "bok": 26671,
    "bok</w>": 15289,
    "boko</w>": 30929,
    "boks</w>": 40216,
    "bol": 2860,
    "bol</w>": 8413,
    "bola</w>": 12840,
    "bold": 26975,
    "bold</w>": 8911,
    "boldand": 48413,
    "boldly</w>": 44778,
    "boli": 12722,
    "bolic</w>": 27343,
    "bolivia</w>": 28628,
    "bollah</w>": 36336,
    "bolly": 25302,
    "bollywood": 32448,
    "bollywood</w>": 9604,
    "bolo</w>": 40236,
    "bolog": 22818,
    "bologna</w>": 27513,
    "bolster</w>": 47304,
    "bolt</w>": 13131,
    "bolton": 48757,
    "bolton</w>": 16598,
    "bolts</w>": 26028,
    "bom": 3012,
    "bom</w>": 19469,
    "bomb": 18091,
    "bomb</w>": 6331,
    "bombar": 25544,
    "bombardier</w>": 42700,
    "bombay": 48602,
    "bombay</w>": 23890,
    "bombed</w>": 24542,
    "bomber</w>": 15436,
    "bombers</w>": 21786,
    "bombing</w>": 14475,
    "bombings</w>": 43236,
    "bombs</w>": 14410,
    "bombshell</w>": 36340,
    "bon": 1871,
    "bon</w>": 4216,
    "bona</w>": 33342,
    "bonanza</w>": 40304,
    "bond": 37022,
    "bond</w>": 6826,
    "bonded</w>": 37390,
    "bondi</w>": 40092,
    "bonding</w>": 19609,
    "bonds</w>": 15786,
    "bone": 22502,
    "bone</w>": 6195,
    "bones</w>": 9476,
    "bonfire</w>": 23151,
    "bongo</w>": 47519,
    "boni": 32269,
    "boni</w>": 46356,
    "bonita</w>": 42896,
    "bonjour</w>": 33176,
    "bonkers</w>": 39865,
    "bonn</w>": 38969,
    "bonnar": 47191,
    "bonnaroo</w>": 48777,
    "bonne</w>": 25844,
    "bonnet</w>": 30636,
    "bonnie</w>": 18555,
    "bono</w>": 24476,
    "bons</w>": 42883,
    "bonsai</w>": 44129,
    "bonus</w>": 8164,
    "bonuses</w>": 35144,
    "boo": 824,
    "boo</w>": 7317,
    "boogie</w>": 22639,
    "book": 2828,
    "book</w>": 1116,
    "bookboost</w>": 31257,
    "bookclub</w>": 34438,
    "bookday</w>": 26327,
    "booked</w>": 12584,
    "booker</w>": 21302,
    "bookfest</w>": 39381,
    "booking</w>": 10145,
    "bookings</w>": 18345,
    "booklet</w>": 27405,
    "bookmark</w>": 33596,
    "bookof": 45629,
    "bookreview</w>": 27362,
    "books": 44382,
    "books</w>": 2161,
    "bookshelf</w>": 34821,
    "bookshop</w>": 24705,
    "bookstore</w>": 17999,
    "bookstores</w>": 46416,
    "bookworm</w>": 20743,
    "boom": 9609,
    "boom</w>": 7121,
    "boomer": 33819,
    "boomer</w>": 31766,
    "boomers</w>": 37988,
    "booming</w>": 33487,
    "boon": 24979,
    "boon</w>": 35821,
    "boone</w>": 23453,
    "boop</w>": 45047,
    "boost": 44639,
    "boost</w>": 6260,
    "boosted</w>": 37631,
    "booster</w>": 20877,
    "boosters</w>": 46859,
    "boosting</w>": 28480,
    "boosts</w>": 29247,
    "boot": 10843,
    "boot</w>": 8087,
    "bootcamp</w>": 22051,
    "booted</w>": 42564,
    "booth": 47895,
    "booth</w>": 3971,
    "booths</w>": 32653,
    "booties</w>": 46188,
    "bootleg</w>": 38139,
    "boots</w>": 7319,
    "booze</w>": 24341,
    "bop</w>": 19720,
    "bor": 1141,
    "bor</w>": 15093,
    "bora</w>": 24736,
    "bord</w>": 36891,
    "bordeaux</w>": 22009,
    "border": 16304,
    "border</w>": 6177,
    "borderlands</w>": 38676,
    "borders</w>": 13900,
    "bore": 14084,
    "bore</w>": 24638,
    "bored</w>": 8933,
    "boredom</w>": 31460,
    "boretum</w>": 38902,
    "borg</w>": 14770,
    "borgh": 17180,
    "boring</w>": 12519,
    "boris": 31212,
    "boris</w>": 15704,
    "borisjohnson</w>": 44481,
    "born": 17695,
    "born</w>": 2683,
    "borne": 42910,
    "borne</w>": 9328,
    "borneo</w>": 33332,
    "bornon": 41811,
    "bornonthisday</w>": 42757,
    "boro": 26796,
    "boro</w>": 7974,
    "borough": 22761,
    "borough</w>": 6203,
    "borrow</w>": 22293,
    "borrowed</w>": 28224,
    "borrowing</w>": 41045,
    "borussia</w>": 36764,
    "bos": 14885,
    "bos</w>": 9644,
    "bosa</w>": 46946,
    "bosch": 42009,
    "bosch</w>": 19466,
    "bosco</w>": 36960,
    "bose</w>": 23142,
    "bosh</w>": 42244,
    "bosni": 42924,
    "bosnia</w>": 31396,
    "boss": 17935,
    "boss</w>": 4206,
    "bosses</w>": 23906,
    "boston": 11540,
    "boston</w>": 4399,
    "bostonmarathon</w>": 44533,
    "bot": 4136,
    "bot</w>": 6947,
    "botan": 12554,
    "botanic</w>": 32560,
    "botanical</w>": 21026,
    "botany</w>": 22612,
    "botd</w>": 34451,
    "both": 36575,
    "both</w>": 2212,
    "bother</w>": 21125,
    "bothered</w>": 27997,
    "botox</w>": 43449,
    "bots</w>": 13721,
    "botswana</w>": 27584,
    "bott": 3520,
    "bott</w>": 37225,
    "bottle": 37306,
    "bottle</w>": 5392,
    "bottled</w>": 29331,
    "bottlen": 46439,
    "bottles</w>": 9754,
    "bottling</w>": 42006,
    "bottom": 32314,
    "bottom</w>": 5931,
    "bottoms</w>": 31524,
    "bou": 3728,
    "bou</w>": 23165,
    "bouchard</w>": 47930,
    "boudo": 48827,
    "bought</w>": 4142,
    "boul": 24830,
    "boulder</w>": 18260,
    "boule": 17652,
    "boulevard</w>": 19504,
    "boun": 5993,
    "bounce</w>": 14316,
    "bouncing</w>": 32060,
    "bouncy</w>": 43415,
    "bound": 15140,
    "bound</w>": 4567,
    "boundaries</w>": 18690,
    "boundary</w>": 21344,
    "bounds</w>": 37469,
    "bounty</w>": 21142,
    "bouquet</w>": 20961,
    "bour": 2934,
    "bour</w>": 35486,
    "bourbon": 48118,
    "bourbon</w>": 14652,
    "bourdain</w>": 48095,
    "bourg</w>": 20690,
    "bourgeo": 45672,
    "bourn</w>": 39143,
    "bourne": 13789,
    "bourne</w>": 5192,
    "bournemouth</w>": 20911,
    "bout": 19982,
    "bout</w>": 8123,
    "bouti": 10926,
    "boutique</w>": 12179,
    "bow": 2297,
    "bow</w>": 4040,
    "bowden</w>": 48538,
    "bowed</w>": 49130,
    "bowel</w>": 36880,
    "bowen</w>": 25368,
    "bower</w>": 40414,
    "bowers</w>": 42238,
    "bowie</w>": 13036,
    "bowing</w>": 46398,
    "bowl": 26719,
    "bowl</w>": 3814,
    "bowled</w>": 39987,
    "bowler</w>": 25528,
    "bowlers</w>": 42632,
    "bowles</w>": 41611,
    "bowling</w>": 10390,
    "bowls</w>": 17787,
    "bowman</w>": 22052,
    "bows</w>": 17000,
    "bowser</w>": 38234,
    "bowski</w>": 48311,
    "box": 2774,
    "box</w>": 2063,
    "boxed</w>": 24190,
    "boxer": 40394,
    "boxer</w>": 15363,
    "boxers</w>": 31019,
    "boxes</w>": 8350,
    "boxing": 33669,
    "boxing</w>": 5554,
    "boy": 2927,
    "boy</w>": 1876,
    "boyband</w>": 31568,
    "boyce</w>": 44480,
    "boycot": 46208,
    "boycott": 31615,
    "boycott</w>": 19559,
    "boyd</w>": 18295,
    "boyfriend</w>": 7328,
    "boyfriends</w>": 36541,
    "boyle</w>": 22802,
    "boys": 25223,
    "boys</w>": 2034,
    "boyz</w>": 16152,
    "bp": 23410,
    "bp</w>": 11558,
    "bpa</w>": 43855,
    "bpd</w>": 48587,
    "bpl</w>": 28901,
    "bpm</w>": 40338,
    "bps</w>": 37794,
    "br": 711,
    "br</w>": 7532,
    "bra": 1195,
    "bra</w>": 5860,
    "brac": 6663,
    "brace": 8376,
    "brace</w>": 9183,
    "bracelet</w>": 8969,
    "bracelets</w>": 20027,
    "braces</w>": 19249,
    "brack": 25676,
    "bracket</w>": 14780,
    "brackets</w>": 36183,
    "brad": 4848,
    "brad</w>": 9405,
    "bradbury</w>": 45097,
    "braden</w>": 46842,
    "bradford</w>": 15062,
    "bradley": 31905,
    "bradley</w>": 10952,
    "brador</w>": 24062,
    "bradshaw</w>": 37556,
    "brady": 42494,
    "brady</w>": 11117,
    "brae": 42874,
    "brae</w>": 40040,
    "brag</w>": 30110,
    "bragg</w>": 38545,
    "bragging</w>": 38199,
    "brah": 20276,
    "brahms</w>": 45114,
    "brai": 25048,
    "braid</w>": 31067,
    "braided</w>": 39997,
    "braids</w>": 34221,
    "brain": 9454,
    "brain</w>": 4812,
    "brains</w>": 17129,
    "brainstorming</w>": 36607,
    "braised</w>": 28363,
    "brake</w>": 14937,
    "brakes</w>": 23456,
    "bral</w>": 31309,
    "bram": 14815,
    "bram</w>": 39456,
    "brampton</w>": 35124,
    "bran": 3684,
    "bran</w>": 28348,
    "brance": 36072,
    "brance</w>": 15413,
    "branch</w>": 7998,
    "branches</w>": 15843,
    "brand": 3910,
    "brand</w>": 2896,
    "branded</w>": 18097,
    "brandi</w>": 41003,
    "branding</w>": 10841,
    "brando</w>": 41892,
    "brandon": 20423,
    "brandon</w>": 9166,
    "brands</w>": 8681,
    "brandt</w>": 22552,
    "brandy</w>": 26232,
    "brane</w>": 32340,
    "branson</w>": 28280,
    "brant": 28951,
    "brant</w>": 47592,
    "braries</w>": 46377,
    "brary</w>": 24520,
    "bras</w>": 22611,
    "brasil</w>": 18991,
    "brass": 24348,
    "brass</w>": 11655,
    "brat": 26717,
    "brat</w>": 26631,
    "brate</w>": 41864,
    "braun": 39129,
    "braun</w>": 29309,
    "brave": 25461,
    "brave</w>": 7769,
    "braved</w>": 47663,
    "bravely</w>": 42303,
    "bravery</w>": 25831,
    "braves</w>": 14422,
    "braving</w>": 43258,
    "bravo": 38613,
    "bravo</w>": 13006,
    "braw": 37871,
    "brawl</w>": 26066,
    "braxton</w>": 37451,
    "bray": 26256,
    "bray</w>": 22993,
    "braz": 4625,
    "brazil": 47459,
    "brazil</w>": 6305,
    "brazili": 45697,
    "brazilian</w>": 12111,
    "brb</w>": 25316,
    "brc</w>": 40393,
    "bre": 887,
    "bre</w>": 7782,
    "brea": 7318,
    "brea</w>": 46538,
    "breach</w>": 21363,
    "breaches</w>": 45173,
    "bread": 18886,
    "bread</w>": 5066,
    "breads</w>": 43064,
    "break": 2206,
    "break</w>": 2568,
    "breakable</w>": 30691,
    "breakaway</w>": 42732,
    "breakdown</w>": 14519,
    "breaker</w>": 14814,
    "breakers</w>": 22270,
    "breakfa": 45931,
    "breakfast": 30210,
    "breakfast</w>": 3290,
    "breaking": 14698,
    "breaking</w>": 2755,
    "breakingbad</w>": 38032,
    "breakingnews</w>": 23837,
    "breakout</w>": 16752,
    "breaks</w>": 7263,
    "breakthrough</w>": 18802,
    "breakup</w>": 38931,
    "breast": 12930,
    "breast</w>": 9475,
    "breastcancer": 40813,
    "breastcancer</w>": 30065,
    "breastfeeding</w>": 29033,
    "breasts</w>": 37637,
    "breath": 9508,
    "breath</w>": 9576,
    "breathe</w>": 11364,
    "breathing</w>": 14959,
    "breathtaking</w>": 14709,
    "brecht</w>": 34622,
    "breck": 44598,
    "bred": 46929,
    "bred</w>": 16008,
    "bree": 7892,
    "bree</w>": 37138,
    "breed": 28030,
    "breed</w>": 13791,
    "breeders</w>": 37472,
    "breeding</w>": 16544,
    "breeds</w>": 29021,
    "breen</w>": 48013,
    "brees</w>": 46721,
    "breeze</w>": 13125,
    "breezy</w>": 21451,
    "breit": 23864,
    "breitbart</w>": 37926,
    "brek": 35494,
    "bremen</w>": 39861,
    "bren": 5209,
    "brenda</w>": 23786,
    "brendan": 35134,
    "brendan</w>": 15414,
    "brendon</w>": 36756,
    "brennan</w>": 22372,
    "brenner</w>": 42941,
    "brent": 31439,
    "brent</w>": 16355,
    "brentwood</w>": 33108,
    "brero</w>": 47781,
    "bres</w>": 32561,
    "bret": 38020,
    "bret</w>": 32548,
    "brethren</w>": 43134,
    "breton</w>": 32290,
    "brett": 22591,
    "brett</w>": 12394,
    "brev</w>": 42882,
    "brevi": 39475,
    "brew": 5048,
    "brew</w>": 7253,
    "brewco</w>": 33582,
    "brewed</w>": 23238,
    "brewer</w>": 20756,
    "breweries</w>": 35277,
    "brewers</w>": 17618,
    "brewery</w>": 8850,
    "brewing</w>": 8275,
    "brewingco</w>": 45155,
    "brews</w>": 21663,
    "brewster</w>": 40274,
    "brex": 22726,
    "brexit": 27666,
    "brexit</w>": 5801,
    "brgy</w>": 35983,
    "bri": 1036,
    "bri</w>": 18636,
    "bria</w>": 35890,
    "brian": 9824,
    "brian</w>": 4989,
    "brianna</w>": 32308,
    "briar</w>": 46119,
    "bribe</w>": 40042,
    "bribery</w>": 41792,
    "bric": 27055,
    "brice</w>": 40190,
    "brick": 13937,
    "brick</w>": 9518,
    "bricks</w>": 21029,
    "brics</w>": 48196,
    "brid": 16995,
    "bridal": 36875,
    "bridal</w>": 14284,
    "bride": 18342,
    "bride</w>": 8964,
    "brides</w>": 18067,
    "bridesma": 28356,
    "bridesmaid</w>": 43399,
    "bridesmaids</w>": 47754,
    "bridg": 20623,
    "bridge": 8647,
    "bridge</w>": 2465,
    "bridgeport</w>": 45201,
    "bridges</w>": 11811,
    "bridget</w>": 27073,
    "bridgewater</w>": 38732,
    "bridging</w>": 38109,
    "brie</w>": 26622,
    "brief": 9435,
    "brief</w>": 8954,
    "briefed</w>": 47326,
    "briefing</w>": 12991,
    "briefly</w>": 26980,
    "briefs</w>": 29557,
    "brien</w>": 13504,
    "brier</w>": 43995,
    "brig": 11081,
    "briga": 46448,
    "brigade</w>": 16032,
    "briggs</w>": 28108,
    "brigh": 6710,
    "bright": 10383,
    "bright</w>": 4852,
    "brighten</w>": 18208,
    "brightening</w>": 43929,
    "brighter</w>": 18507,
    "brightest</w>": 26159,
    "brightly</w>": 36298,
    "brightness</w>": 42280,
    "brighton": 28416,
    "brighton</w>": 9470,
    "brigitte</w>": 44421,
    "brill": 27342,
    "brill</w>": 28601,
    "brilli": 3821,
    "brilliance</w>": 28146,
    "brilliant</w>": 4106,
    "brilliantly</w>": 26803,
    "brin": 25620,
    "bring": 11596,
    "bring</w>": 2430,
    "bringback": 28969,
    "bringbackour": 45403,
    "bringing</w>": 4777,
    "brings</w>": 5138,
    "brink": 39296,
    "brink</w>": 28796,
    "brioche</w>": 45818,
    "bris": 9385,
    "bris</w>": 15783,
    "brisban": 30431,
    "brisbane": 42932,
    "brisbane</w>": 12407,
    "brisk</w>": 43646,
    "brisket</w>": 31920,
    "bristol": 18159,
    "bristol</w>": 8010,
    "brit": 2318,
    "brit</w>": 20066,
    "britain": 40802,
    "britain</w>": 6272,
    "britanni": 31373,
    "britannia</w>": 36188,
    "brite</w>": 33827,
    "briti": 8155,
    "british": 8651,
    "british</w>": 3504,
    "britishmuseum</w>": 41858,
    "britney": 37192,
    "britney</w>": 21853,
    "britneyspears</w>": 42990,
    "brits</w>": 21832,
    "britt": 10811,
    "britt</w>": 25976,
    "brittany": 38187,
    "brittany</w>": 18818,
    "britton</w>": 37422,
    "brium</w>": 46079,
    "brixton</w>": 30056,
    "bro": 927,
    "bro</w>": 4410,
    "broad": 3491,
    "broad</w>": 12623,
    "broadband</w>": 21050,
    "broadcast</w>": 8967,
    "broadcaster</w>": 29005,
    "broadcasting</w>": 14403,
    "broadcasts</w>": 46742,
    "broader</w>": 36029,
    "broadway": 34599,
    "broadway</w>": 9092,
    "broc": 15587,
    "broccoli</w>": 19094,
    "broch": 21419,
    "brochure</w>": 25275,
    "brock": 14841,
    "brock</w>": 16745,
    "brodie</w>": 42150,
    "brody</w>": 29608,
    "broke": 42165,
    "broke</w>": 6509,
    "broken": 26126,
    "broken</w>": 5107,
    "broker": 34032,
    "broker</w>": 20449,
    "brokerage</w>": 41327,
    "brokers</w>": 28271,
    "brom": 18972,
    "brom</w>": 33296,
    "bromance</w>": 35353,
    "bromley</w>": 35715,
    "bron": 4011,
    "bron</w>": 10243,
    "bronco": 43488,
    "bronco</w>": 34370,
    "broncos</w>": 12516,
    "bronson</w>": 37042,
    "bronte</w>": 48936,
    "bronx": 48310,
    "bronx</w>": 17183,
    "brony</w>": 21084,
    "bronze</w>": 8459,
    "broo": 5204,
    "brooch</w>": 21207,
    "brook": 4782,
    "brook</w>": 7322,
    "brooke": 28576,
    "brooke</w>": 12549,
    "brookes</w>": 39707,
    "brooklyn": 23253,
    "brooklyn</w>": 6983,
    "brooks": 42779,
    "brooks</w>": 9991,
    "broom": 32046,
    "broom</w>": 28008,
    "broome</w>": 49335,
    "bros</w>": 7776,
    "broth</w>": 29994,
    "brotha</w>": 33974,
    "brother": 12697,
    "brother</w>": 3157,
    "brotherhood</w>": 19059,
    "brothers</w>": 4548,
    "brou": 27874,
    "brough</w>": 21033,
    "brought</w>": 4222,
    "brov": 42881,
    "brow": 6547,
    "brow</w>": 15895,
    "broward</w>": 34719,
    "brown": 6315,
    "brown</w>": 2866,
    "browne</w>": 28440,
    "brownie</w>": 23045,
    "brownies</w>": 22312,
    "browning</w>": 32241,
    "browns</w>": 14051,
    "brows</w>": 14998,
    "browse</w>": 19060,
    "browser</w>": 19768,
    "browsing</w>": 29318,
    "brox</w>": 43539,
    "brs</w>": 47485,
    "brt</w>": 46936,
    "bru": 1698,
    "bru</w>": 31028,
    "bruce": 21223,
    "bruce</w>": 7085,
    "bruh</w>": 17575,
    "bruins</w>": 14736,
    "bruise</w>": 48048,
    "bruised</w>": 46502,
    "brum": 23862,
    "brum</w>": 28078,
    "brun": 6870,
    "brunch</w>": 9113,
    "brune": 29057,
    "brunei</w>": 41898,
    "brunette</w>": 35528,
    "bruno</w>": 14568,
    "brunomars</w>": 41156,
    "brunswick</w>": 24012,
    "brush": 27969,
    "brush</w>": 8594,
    "brushed</w>": 30298,
    "brushes</w>": 21550,
    "brushing</w>": 35072,
    "brussels</w>": 11020,
    "brut</w>": 39499,
    "brutal": 42144,
    "brutal</w>": 14556,
    "brutality</w>": 31348,
    "brutally</w>": 28132,
    "brute</w>": 47552,
    "brux": 49093,
    "bry": 6587,
    "bry</w>": 28228,
    "bryan": 16134,
    "bryan</w>": 10412,
    "bryant</w>": 12256,
    "bryce</w>": 19895,
    "bryn": 36569,
    "bryn</w>": 42877,
    "bryson</w>": 38990,
    "bs": 11783,
    "bs</w>": 1329,
    "bsa</w>": 46619,
    "bsb</w>": 23070,
    "bsbi": 41728,
    "bsbibotany</w>": 42086,
    "bsc</w>": 32031,
    "bsd</w>": 41848,
    "bse</w>": 46341,
    "bsf</w>": 48314,
    "bsgo</w>": 48474,
    "bsp</w>": 47977,
    "bst</w>": 19698,
    "bsu</w>": 46385,
    "bt": 3317,
    "bt</w>": 4205,
    "btc</w>": 10315,
    "btcc</w>": 30759,
    "btn</w>": 44681,
    "bto</w>": 35516,
    "btob</w>": 29379,
    "btr</w>": 39767,
    "bts": 15154,
    "bts</w>": 4007,
    "btsarmy</w>": 30302,
    "btsbbmas</w>": 35297,
    "btsx": 44971,
    "btv</w>": 38541,
    "btw</w>": 9520,
    "btwn</w>": 28284,
    "bu": 609,
    "bu</w>": 5831,
    "bub": 27704,
    "bub</w>": 33158,
    "bubb": 9739,
    "bubba</w>": 28149,
    "bubble": 28687,
    "bubble</w>": 10799,
    "bubblegum</w>": 48078,
    "bubbles</w>": 17648,
    "bubbly</w>": 31034,
    "buc": 8207,
    "buccane": 32830,
    "buccaneers</w>": 38058,
    "buch": 22623,
    "bucha</w>": 43582,
    "buchan": 27237,
    "buchanan</w>": 28975,
    "bucharest</w>": 37013,
    "buck": 6061,
    "buck</w>": 11433,
    "bucket": 22596,
    "bucket</w>": 10498,
    "bucketlist</w>": 30778,
    "buckets</w>": 27168,
    "buckeye</w>": 34549,
    "buckeyes</w>": 30741,
    "buckingham</w>": 28736,
    "buckle</w>": 21948,
    "buckley</w>": 25905,
    "bucks</w>": 6103,
    "bucky</w>": 35916,
    "bucs</w>": 20011,
    "bud": 2942,
    "bud</w>": 10737,
    "buda": 18520,
    "buda</w>": 49012,
    "budapest</w>": 19202,
    "budd": 7296,
    "buddha</w>": 13981,
    "buddhism</w>": 23744,
    "buddhist</w>": 18697,
    "buddies</w>": 14543,
    "budding</w>": 31992,
    "buddy": 40948,
    "buddy</w>": 6557,
    "budge": 32005,
    "budget": 46758,
    "budget</w>": 5639,
    "budgeting</w>": 43789,
    "budgets</w>": 36419,
    "buds</w>": 14665,
    "budweiser</w>": 40900,
    "buen": 15640,
    "buena</w>": 30876,
    "buenas</w>": 48529,
    "bueno</w>": 46202,
    "buenos</w>": 26055,
    "buf": 44417,
    "buff": 5456,
    "buff</w>": 21416,
    "buffal": 25836,
    "buffalo": 31231,
    "buffalo</w>": 8054,
    "buffalob": 38831,
    "buffalobills</w>": 44352,
    "buffe": 13724,
    "buffer</w>": 33050,
    "buffet</w>": 17829,
    "buffett</w>": 34081,
    "buffs</w>": 28906,
    "buffy</w>": 33356,
    "bug": 14453,
    "bug</w>": 8162,
    "bugatti</w>": 35451,
    "buggy</w>": 28963,
    "bugs</w>": 13850,
    "buh</w>": 31406,
    "buhari</w>": 14661,
    "buick</w>": 22000,
    "buil": 1354,
    "build": 22739,
    "build</w>": 3289,
    "builder</w>": 14474,
    "builders</w>": 17694,
    "building": 21206,
    "building</w>": 2307,
    "buildings</w>": 8866,
    "builds</w>": 16449,
    "buildthe": 41497,
    "built": 45824,
    "built</w>": 3874,
    "buk": 28084,
    "buk</w>": 24317,
    "buka</w>": 47778,
    "bukit</w>": 39888,
    "bul": 2572,
    "bul</w>": 10200,
    "bula</w>": 18726,
    "bulaga</w>": 41575,
    "bular</w>": 32187,
    "bulb</w>": 22373,
    "bulbs</w>": 24808,
    "bulgar": 15424,
    "bulgaria</w>": 20295,
    "bulgarian</w>": 38693,
    "bulge</w>": 47603,
    "bulk</w>": 19643,
    "bull": 4537,
    "bull</w>": 6029,
    "bulldo": 37675,
    "bulldog": 34828,
    "bulldog</w>": 15611,
    "bulldogs</w>": 13916,
    "bullet": 14340,
    "bullet</w>": 12465,
    "bulletin</w>": 19638,
    "bulletproof</w>": 43212,
    "bullets</w>": 22117,
    "bullied</w>": 34689,
    "bullies</w>": 39050,
    "bullion</w>": 49114,
    "bullish</w>": 22142,
    "bullock</w>": 33198,
    "bullpen</w>": 38081,
    "bulls</w>": 10313,
    "bully": 43111,
    "bully</w>": 20190,
    "bullying</w>": 13548,
    "bum": 27683,
    "bum</w>": 14226,
    "bumble": 25585,
    "bumble</w>": 39303,
    "bumblebee</w>": 36911,
    "bummed</w>": 48456,
    "bump": 9783,
    "bump</w>": 15877,
    "bumped</w>": 22495,
    "bumper</w>": 17881,
    "bumping</w>": 40196,
    "bumps</w>": 21115,
    "bun": 2591,
    "bun</w>": 13665,
    "bunch</w>": 7796,
    "bund</w>": 41905,
    "bunde": 18841,
    "bundesliga</w>": 21582,
    "bundle</w>": 11793,
    "bundled</w>": 47228,
    "bundles</w>": 29834,
    "bundy</w>": 37332,
    "bung</w>": 44748,
    "bungal": 29549,
    "bungalow</w>": 33696,
    "bunk</w>": 41236,
    "bunker</w>": 23615,
    "bunnies</w>": 28998,
    "bunny": 34198,
    "bunny</w>": 9258,
    "buns</w>": 22235,
    "bunting</w>": 30695,
    "buon": 31350,
    "buon</w>": 48498,
    "bur": 1039,
    "bur</w>": 17362,
    "burbank</w>": 34862,
    "burberry</w>": 30412,
    "burch</w>": 44588,
    "burden</w>": 18687,
    "bure": 11902,
    "bureau": 32098,
    "bureau</w>": 15400,
    "burg": 19505,
    "burg</w>": 3499,
    "burge": 20522,
    "burger": 22356,
    "burger</w>": 6548,
    "burgers</w>": 13007,
    "burgess</w>": 26211,
    "burgh": 18141,
    "burgh</w>": 4965,
    "burgl": 25554,
    "burglar</w>": 43365,
    "burglary</w>": 32573,
    "burgring</w>": 40823,
    "burgundy</w>": 23650,
    "buri": 46348,
    "buri</w>": 42614,
    "burial</w>": 22012,
    "buried</w>": 14233,
    "burk": 48822,
    "burke</w>": 15340,
    "burle": 27891,
    "burlesque</w>": 33732,
    "burlington</w>": 23370,
    "burma</w>": 30305,
    "burmese</w>": 47906,
    "burn": 7934,
    "burn</w>": 4285,
    "burnaby</w>": 47541,
    "burne</w>": 27246,
    "burned</w>": 15022,
    "burner</w>": 23243,
    "burnett</w>": 28558,
    "burnham</w>": 36111,
    "burning": 46107,
    "burning</w>": 8405,
    "burnley</w>": 24653,
    "burnout</w>": 36078,
    "burns</w>": 10234,
    "burnt</w>": 15185,
    "burr</w>": 30879,
    "burrell</w>": 49045,
    "burrito</w>": 23473,
    "burritos</w>": 47245,
    "burroughs</w>": 41337,
    "burrows</w>": 44846,
    "burst</w>": 13005,
    "bursting</w>": 32566,
    "bursts</w>": 37026,
    "burt</w>": 27162,
    "burton": 42354,
    "burton</w>": 12704,
    "burundi</w>": 33595,
    "bury": 12276,
    "bury</w>": 3899,
    "burys</w>": 32362,
    "bus": 1319,
    "bus</w>": 2840,
    "busan</w>": 40172,
    "busc": 35000,
    "busch</w>": 20475,
    "buses</w>": 12879,
    "bush": 11191,
    "bush</w>": 6867,
    "bushes</w>": 37578,
    "busiest</w>": 32764,
    "busine": 4598,
    "busines": 25364,
    "business": 8346,
    "business</w>": 1716,
    "businesses</w>": 7287,
    "businessman</w>": 25635,
    "buss</w>": 47764,
    "bust": 31299,
    "bust</w>": 9959,
    "busted</w>": 18643,
    "buster": 37219,
    "buster</w>": 12094,
    "busters</w>": 16362,
    "busting</w>": 29622,
    "busy": 39332,
    "busy</w>": 4354,
    "but": 2201,
    "but</w>": 767,
    "butch</w>": 35102,
    "butcher</w>": 18732,
    "butchers</w>": 42334,
    "bute</w>": 39240,
    "butes</w>": 14630,
    "butler": 35867,
    "butler</w>": 10702,
    "butt": 12500,
    "butt</w>": 31523,
    "butte</w>": 31678,
    "butter": 5427,
    "butter</w>": 6952,
    "butterflies</w>": 16232,
    "butterfly</w>": 9738,
    "buttermilk</w>": 40180,
    "butternut</w>": 36867,
    "buttery</w>": 45535,
    "button": 45480,
    "button</w>": 8007,
    "buttons</w>": 16188,
    "butts</w>": 25309,
    "buu": 42313,
    "buuren</w>": 47752,
    "buxton</w>": 41370,
    "buy": 11632,
    "buy</w>": 2131,
    "buyer</w>": 14682,
    "buyers</w>": 14663,
    "buying</w>": 6566,
    "buys</w>": 15560,
    "buzz": 7866,
    "buzz</w>": 8706,
    "buzzard</w>": 47434,
    "buzzer</w>": 38064,
    "buzzfeed</w>": 26613,
    "buzzing</w>": 18511,
    "bv": 18958,
    "bv</w>": 35861,
    "bvb</w>": 22454,
    "bw": 17672,
    "bw</w>": 15120,
    "bway</w>": 26652,
    "bwfc</w>": 40918,
    "bwo": 45902,
    "bx</w>": 33633,
    "by": 1713,
    "by</w>": 638,
    "bye": 20076,
    "bye</w>": 4460,
    "byes</w>": 47958,
    "byl</w>": 34994,
    "byn": 46917,
    "byn</w>": 11890,
    "byo": 28039,
    "bypass</w>": 26530,
    "byr": 15534,
    "byrd</w>": 30369,
    "byrne</w>": 19676,
    "byron": 43504,
    "byron</w>": 19775,
    "bys</w>": 26740,
    "bystand": 46138,
    "byte</w>": 42798,
    "bytes</w>": 39538,
    "bythe": 36621,
    "byu": 41072,
    "byu</w>": 23770,
    "byz": 35406,
    "byzantine</w>": 44081,
    "bz</w>": 13631,
    "bÃ©": 40365,
    "bÃ¼": 38706,
    "c": 66,
    "c</w>": 322,
    "ca": 772,
    "ca</w>": 1684,
    "caa</w>": 19316,
    "cab": 3033,
    "cab</w>": 11912,
    "cabaret</w>": 26263,
    "cabbage</w>": 18407,
    "cabe</w>": 32731,
    "cabello</w>": 34371,
    "caber": 29062,
    "cabernet</w>": 33730,
    "cabin</w>": 14178,
    "cabine": 23354,
    "cabinet</w>": 9937,
    "cabinets</w>": 33083,
    "cabins</w>": 48455,
    "cable</w>": 7925,
    "cables</w>": 22408,
    "cabo": 37318,
    "cabo</w>": 28370,
    "cabrera</w>": 42338,
    "cabs</w>": 42048,
    "cac": 8298,
    "cac</w>": 23872,
    "cacao</w>": 38022,
    "cache</w>": 28993,
    "caching</w>": 40655,
    "cactus</w>": 19794,
    "cad": 6297,
    "cad</w>": 20166,
    "caday</w>": 34187,
    "cadbury</w>": 44698,
    "caddy</w>": 41521,
    "cade": 10497,
    "cade</w>": 17306,
    "cadet</w>": 22764,
    "cadets</w>": 19160,
    "cadillac</w>": 18156,
    "cae</w>": 49264,
    "caer": 28298,
    "caes": 15740,
    "caesar</w>": 21642,
    "caesars</w>": 42162,
    "caf": 3471,
    "caf</w>": 20867,
    "cafc</w>": 30748,
    "cafe": 15201,
    "cafe</w>": 4979,
    "cafes</w>": 40166,
    "cafeteria</w>": 32817,
    "caffe": 18258,
    "caffe</w>": 45416,
    "caffeine</w>": 22487,
    "cafÃ©</w>": 15304,
    "cag": 15714,
    "cage</w>": 11838,
    "cages</w>": 37939,
    "cah</w>": 40519,
    "cahill</w>": 33185,
    "cai": 38971,
    "cai</w>": 36116,
    "cain</w>": 13747,
    "caine</w>": 16799,
    "cair": 15804,
    "cair</w>": 46659,
    "cairn": 31264,
    "cairn</w>": 42467,
    "cairngor": 44067,
    "cairns</w>": 32941,
    "cairo</w>": 19615,
    "cait": 14116,
    "caitlin": 47768,
    "caitlin</w>": 26809,
    "caitlyn</w>": 35763,
    "cajun": 43425,
    "cajun</w>": 33044,
    "cak</w>": 42986,
    "cake": 15295,
    "cake</w>": 2972,
    "cakeday</w>": 46207,
    "cakes</w>": 5950,
    "cal": 1198,
    "cal</w>": 6372,
    "cala</w>": 32133,
    "calab": 31795,
    "calais</w>": 39886,
    "calam": 28841,
    "calc</w>": 45055,
    "calci": 22824,
    "calcium</w>": 27815,
    "calcu": 15328,
    "calcul": 15734,
    "calculate</w>": 37656,
    "calculated</w>": 40688,
    "calculations</w>": 44605,
    "calculator</w>": 26093,
    "calculus</w>": 35104,
    "calcutta</w>": 42901,
    "calder": 29372,
    "calder</w>": 36817,
    "caldwell</w>": 30484,
    "cale</w>": 32674,
    "caleb</w>": 19619,
    "caled": 28421,
    "calend": 6057,
    "calendar</w>": 7122,
    "calendars</w>": 17229,
    "calf</w>": 17508,
    "calgary": 27415,
    "calgary</w>": 10797,
    "calhoun</w>": 38929,
    "cali": 2857,
    "cali</w>": 16337,
    "caliber</w>": 32820,
    "calibr": 32597,
    "calico</w>": 45379,
    "calif</w>": 30839,
    "califor": 3526,
    "californi": 21303,
    "california</w>": 3729,
    "call": 7950,
    "call</w>": 1620,
    "calla": 20658,
    "callahan</w>": 43313,
    "callaway</w>": 42596,
    "callback</w>": 44764,
    "calle": 47699,
    "calle</w>": 38144,
    "called</w>": 2726,
    "caller</w>": 30666,
    "calli": 16338,
    "callie</w>": 36512,
    "calligraphy</w>": 27775,
    "calling</w>": 4597,
    "callister</w>": 49026,
    "callme": 42449,
    "callof": 41280,
    "calls</w>": 4572,
    "callum</w>": 23224,
    "calm": 34990,
    "calm</w>": 7011,
    "calming</w>": 30690,
    "calorie</w>": 32679,
    "calories</w>": 18029,
    "cals</w>": 47714,
    "calum</w>": 16405,
    "calvary</w>": 40169,
    "calvert</w>": 47134,
    "calves</w>": 31857,
    "calvin": 27642,
    "calvin</w>": 17345,
    "caly": 10244,
    "calyp": 29851,
    "cam": 1004,
    "cam</w>": 5982,
    "camar": 31991,
    "camber": 44362,
    "cambo": 14662,
    "cambodia</w>": 17347,
    "cambridge": 24651,
    "cambridge</w>": 9334,
    "cambridgeshire</w>": 46139,
    "camden": 38735,
    "camden</w>": 17984,
    "came</w>": 1986,
    "camel": 27005,
    "camel</w>": 21914,
    "camels</w>": 41357,
    "cameo</w>": 19492,
    "camer": 4961,
    "camera</w>": 3934,
    "cameraman</w>": 43347,
    "cameras</w>": 12172,
    "camero": 20320,
    "cameron": 19634,
    "cameron</w>": 8057,
    "camerondallas</w>": 40587,
    "cameroon</w>": 24061,
    "camil": 37745,
    "camila</w>": 19919,
    "camilla</w>": 38897,
    "camille</w>": 26741,
    "camino</w>": 28529,
    "camo": 28702,
    "camo</w>": 19716,
    "camogie</w>": 39547,
    "camou": 23588,
    "camoufla": 23667,
    "camouflage</w>": 29049,
    "camp": 2854,
    "camp</w>": 2877,
    "campa": 2793,
    "campaig": 9448,
    "campaign": 44524,
    "campaign</w>": 3193,
    "campaigner</w>": 46364,
    "campaigners</w>": 40272,
    "campaigning</w>": 19594,
    "campaigns</w>": 15669,
    "campan": 31765,
    "campbell": 29094,
    "campbell</w>": 8806,
    "campe": 16672,
    "campeon": 49109,
    "campeones</w>": 30105,
    "camper": 41914,
    "camper</w>": 24522,
    "campers</w>": 26619,
    "campfire</w>": 32530,
    "campground</w>": 46969,
    "camping</w>": 9982,
    "campo</w>": 27600,
    "campos</w>": 48077,
    "camps</w>": 12806,
    "campsite</w>": 44243,
    "campu": 19687,
    "campus</w>": 4560,
    "campuses</w>": 31895,
    "camra</w>": 46155,
    "camry</w>": 46472,
    "cams</w>": 32590,
    "can": 950,
    "can</w>": 753,
    "cana</w>": 28341,
    "canad": 13193,
    "canada</w>": 2698,
    "canadaday</w>": 39800,
    "canadi": 4329,
    "canadian": 22160,
    "canadian</w>": 5255,
    "canadians</w>": 18989,
    "canadiens</w>": 40932,
    "canal": 28585,
    "canal</w>": 9535,
    "canals</w>": 38483,
    "canaria</w>": 47117,
    "canary": 40409,
    "canary</w>": 24523,
    "canberra</w>": 16719,
    "canc": 43189,
    "cancel": 12026,
    "cancel</w>": 21546,
    "canceled</w>": 25874,
    "cancell": 28027,
    "cancellation</w>": 38765,
    "cancelled</w>": 13270,
    "cancels</w>": 34089,
    "cancer": 12690,
    "cancer</w>": 3148,
    "cancers</w>": 33201,
    "cancun</w>": 34721,
    "cand": 4986,
    "candace</w>": 45623,
    "candel": 47834,
    "candi": 6034,
    "candice</w>": 30024,
    "candid": 7884,
    "candid</w>": 19206,
    "candidacy</w>": 46248,
    "candidate</w>": 6475,
    "candidates</w>": 8619,
    "candied</w>": 43982,
    "candies</w>": 46305,
    "candle": 18995,
    "candle</w>": 12674,
    "candlelight</w>": 34724,
    "candles</w>": 15472,
    "candy": 20741,
    "candy</w>": 6417,
    "cane": 23644,
    "cane</w>": 14716,
    "canelo</w>": 43210,
    "canes</w>": 21902,
    "cani": 35592,
    "canine</w>": 27380,
    "cann": 4139,
    "cann</w>": 23709,
    "cannab": 7577,
    "cannabis": 31837,
    "cannabis</w>": 8861,
    "canne": 44252,
    "canned</w>": 27290,
    "cannes</w>": 13773,
    "canni": 26389,
    "canning</w>": 38621,
    "cannon": 28771,
    "cannon</w>": 15661,
    "cannons</w>": 46269,
    "cannot</w>": 4785,
    "canny</w>": 26986,
    "cano": 31668,
    "cano</w>": 25937,
    "canoe</w>": 23503,
    "canola</w>": 40389,
    "canon": 17749,
    "canon</w>": 9310,
    "canopy</w>": 26061,
    "cans</w>": 13707,
    "cant": 13395,
    "cant</w>": 5784,
    "canteen</w>": 39230,
    "canter": 19301,
    "canterbury</w>": 22271,
    "canti": 42845,
    "cantina</w>": 47472,
    "canton": 37735,
    "canton</w>": 25363,
    "cantore</w>": 41769,
    "cantwait</w>": 33760,
    "canu": 20171,
    "canucks</w>": 24321,
    "canv": 30714,
    "canvas": 22441,
    "canvas</w>": 7483,
    "canvass</w>": 40054,
    "canvassing</w>": 33783,
    "cany": 47674,
    "canyon": 41246,
    "canyon</w>": 9755,
    "cao</w>": 29207,
    "cap": 1289,
    "cap</w>": 3938,
    "capabilities</w>": 19512,
    "capability</w>": 25885,
    "capable</w>": 14742,
    "capac": 24665,
    "capacity</w>": 8970,
    "capcom</w>": 28342,
    "cape": 10288,
    "cape</w>": 6631,
    "capecod</w>": 41339,
    "capes</w>": 38785,
    "capetown</w>": 20059,
    "capit": 6889,
    "capita</w>": 41833,
    "capital": 11198,
    "capital</w>": 5439,
    "capitalism</w>": 20068,
    "capitalist</w>": 37015,
    "capitals</w>": 29579,
    "capitol": 43880,
    "capitol</w>": 11375,
    "capo</w>": 45477,
    "capp": 16718,
    "capped</w>": 24659,
    "capping</w>": 42656,
    "cappuccino</w>": 37402,
    "capri": 48699,
    "capri</w>": 30982,
    "capric": 28667,
    "capricorn</w>": 46314,
    "caps</w>": 23185,
    "capsu": 15608,
    "capsul": 40341,
    "capsule</w>": 20627,
    "capsules</w>": 32870,
    "capt": 45815,
    "capt</w>": 17369,
    "captain": 14958,
    "captain</w>": 4621,
    "captainamerica</w>": 46229,
    "captainmarvel</w>": 48492,
    "captains</w>": 18706,
    "caption</w>": 11327,
    "captions</w>": 41878,
    "captiv": 19776,
    "captivating</w>": 30580,
    "captive</w>": 29038,
    "captivity</w>": 41141,
    "capture</w>": 8818,
    "captured</w>": 8020,
    "captures</w>": 15305,
    "capturing</w>": 19548,
    "capu": 44241,
    "car": 811,
    "car</w>": 1615,
    "cara</w>": 20016,
    "carab": 32251,
    "carac": 30029,
    "caracas</w>": 45854,
    "caramel</w>": 14788,
    "carameli": 41739,
    "caramelized</w>": 43854,
    "carat</w>": 32981,
    "carav": 13814,
    "caravan</w>": 18566,
    "carb</w>": 21379,
    "carbo": 43235,
    "carbon": 14038,
    "carbon</w>": 7549,
    "carbs</w>": 29313,
    "carcin": 31587,
    "carcinoma</w>": 46810,
    "card": 10793,
    "card</w>": 2601,
    "cardam": 49008,
    "cardboard</w>": 19845,
    "cardi": 6211,
    "cardi</w>": 29677,
    "cardiac</w>": 21256,
    "cardiff": 22488,
    "cardiff</w>": 9781,
    "cardigan</w>": 30501,
    "cardin": 8457,
    "cardinal": 46310,
    "cardinal</w>": 16472,
    "cardinals</w>": 12837,
    "cardio": 15003,
    "cardio</w>": 23455,
    "cardiology</w>": 37276,
    "cardiovascular</w>": 29291,
    "cardo</w>": 40625,
    "cards</w>": 4094,
    "care": 2050,
    "care</w>": 1776,
    "cared</w>": 27675,
    "career": 20609,
    "career</w>": 3061,
    "careers</w>": 10090,
    "careful</w>": 11999,
    "carefully</w>": 15789,
    "caregi": 22042,
    "caregiver</w>": 46372,
    "caregivers</w>": 35909,
    "careless</w>": 47325,
    "carers</w>": 26484,
    "cares</w>": 10968,
    "caretaker</w>": 48037,
    "carey</w>": 14895,
    "cargo</w>": 12490,
    "cari": 18497,
    "cari</w>": 37273,
    "carib": 9757,
    "caribbean</w>": 10368,
    "caribou</w>": 42135,
    "caric": 25337,
    "caricature</w>": 38857,
    "carina</w>": 44357,
    "caring</w>": 13083,
    "carl": 8273,
    "carl</w>": 9482,
    "carla</w>": 25552,
    "carleton</w>": 46496,
    "carlin</w>": 47559,
    "carlisle</w>": 23276,
    "carlo": 17861,
    "carlo</w>": 15266,
    "carlos</w>": 9538,
    "carlow</w>": 44745,
    "carls": 39635,
    "carlson</w>": 24114,
    "carlton</w>": 18934,
    "carly": 23166,
    "carly</w>": 22689,
    "carlyle</w>": 46555,
    "carmel": 30757,
    "carmel</w>": 25601,
    "carmen": 41427,
    "carmen</w>": 18834,
    "carmichael</w>": 41657,
    "carn": 21597,
    "carnage</w>": 31385,
    "carnation</w>": 44577,
    "carnaval</w>": 47238,
    "carne": 17053,
    "carne</w>": 42885,
    "carnegie</w>": 25287,
    "carney</w>": 34194,
    "carni": 8438,
    "carnival": 36708,
    "carnival</w>": 10577,
    "caro": 30317,
    "caro</w>": 29344,
    "carol": 4242,
    "carol</w>": 11489,
    "carole</w>": 31955,
    "carolin": 26418,
    "carolina</w>": 7027,
    "caroline": 31064,
    "caroline</w>": 12641,
    "carols</w>": 33269,
    "carolyn</w>": 25825,
    "carou": 32224,
    "carousel</w>": 36665,
    "carp</w>": 26085,
    "carpen": 15584,
    "carpenter</w>": 18475,
    "carpet</w>": 6922,
    "carpets</w>": 34612,
    "carr": 26951,
    "carr</w>": 17136,
    "carra": 32332,
    "carre": 31114,
    "carrera</w>": 32952,
    "carri": 4739,
    "carriage": 47885,
    "carriage</w>": 21087,
    "carrick</w>": 44052,
    "carrie": 30334,
    "carrie</w>": 15848,
    "carried</w>": 12960,
    "carrier</w>": 12308,
    "carriers</w>": 26865,
    "carries</w>": 17982,
    "carrieunderwood</w>": 47338,
    "carrington</w>": 48759,
    "carroll": 41911,
    "carroll</w>": 14893,
    "carrot</w>": 15435,
    "carrots</w>": 19299,
    "carry": 31863,
    "carry</w>": 6998,
    "carrying</w>": 9920,
    "cars</w>": 3346,
    "carsforsale</w>": 45222,
    "carson": 41766,
    "carson</w>": 13171,
    "cart": 27705,
    "cart</w>": 13065,
    "cartag": 45042,
    "cartagena</w>": 47157,
    "carte</w>": 44949,
    "cartel</w>": 30529,
    "carter": 27330,
    "carter</w>": 7260,
    "cartier</w>": 32951,
    "carto": 5487,
    "carton</w>": 41812,
    "cartoon": 33082,
    "cartoon</w>": 7651,
    "cartoonist</w>": 30793,
    "cartoons</w>": 17673,
    "cartri": 47084,
    "cartridge</w>": 29432,
    "cartridges</w>": 49249,
    "carts</w>": 27581,
    "cartunesapp</w>": 32888,
    "caruso</w>": 45192,
    "carve</w>": 40152,
    "carved</w>": 15127,
    "carver</w>": 28850,
    "carving</w>": 19428,
    "carvings</w>": 48123,
    "cary</w>": 22844,
    "cas": 1671,
    "cas</w>": 13831,
    "casa</w>": 14643,
    "casablanc": 36572,
    "casablanca</w>": 41950,
    "casc": 36714,
    "casca": 43296,
    "cascade</w>": 29065,
    "cascades</w>": 46454,
    "case": 17698,
    "case</w>": 2068,
    "cases</w>": 6888,
    "casey": 24899,
    "casey</w>": 12836,
    "cash": 11050,
    "cash</w>": 5131,
    "cashback</w>": 36368,
    "cashe": 32233,
    "cashew</w>": 39531,
    "cashi": 29517,
    "cashier</w>": 34547,
    "cashmere</w>": 34566,
    "casi": 38350,
    "casino</w>": 10473,
    "casio</w>": 32261,
    "cask</w>": 26299,
    "casm</w>": 35198,
    "casper</w>": 35892,
    "cass</w>": 22556,
    "cassandra</w>": 35289,
    "casser": 31093,
    "casserole</w>": 36045,
    "cassette</w>": 19717,
    "cassi": 14942,
    "cassidy</w>": 21757,
    "cassie</w>": 29323,
    "cassini</w>": 46554,
    "cast": 2509,
    "cast</w>": 1970,
    "caste</w>": 32693,
    "casted</w>": 33838,
    "castel": 43306,
    "castell": 31792,
    "caster": 32101,
    "caster</w>": 8449,
    "casters</w>": 29721,
    "castic</w>": 47737,
    "castillo</w>": 30813,
    "casting</w>": 7087,
    "castle": 12496,
    "castle</w>": 3540,
    "castles</w>": 24766,
    "castro</w>": 16950,
    "casts</w>": 10595,
    "casu": 15345,
    "casual</w>": 10129,
    "casually</w>": 18840,
    "casualties</w>": 30244,
    "casualty</w>": 31222,
    "cat": 1481,
    "cat</w>": 2368,
    "cata</w>": 42279,
    "catal": 12792,
    "catalan</w>": 30532,
    "catalina</w>": 36576,
    "catalo": 34740,
    "catalog</w>": 20036,
    "catalogue</w>": 20985,
    "catalonia</w>": 27039,
    "catalunya</w>": 44132,
    "cataly": 15894,
    "catalyst</w>": 25387,
    "catan</w>": 45893,
    "catap": 39514,
    "catar": 35801,
    "catastro": 22736,
    "catastrophe</w>": 41422,
    "catastrophic</w>": 34448,
    "catch": 18901,
    "catch</w>": 3042,
    "catcher</w>": 15965,
    "catchers</w>": 39060,
    "catches</w>": 17213,
    "catching</w>": 8617,
    "catchy</w>": 37114,
    "catday</w>": 32243,
    "cate": 6357,
    "cate</w>": 24510,
    "cated</w>": 31823,
    "categor": 17006,
    "categori": 40117,
    "categories</w>": 19971,
    "category</w>": 9432,
    "cater": 16634,
    "cater</w>": 38101,
    "catering</w>": 16697,
    "caterpillar</w>": 27111,
    "catfish</w>": 26077,
    "cath": 9196,
    "cath</w>": 30811,
    "cathar": 43784,
    "cathe": 7174,
    "cathedr": 46370,
    "cathedral</w>": 7865,
    "catherine": 35035,
    "catherine</w>": 12339,
    "catho": 7595,
    "cathol": 16315,
    "catholic": 20382,
    "catholic</w>": 7757,
    "catholics</w>": 36808,
    "cathy": 40326,
    "cathy</w>": 22731,
    "cation</w>": 21367,
    "cato</w>": 33558,
    "cats": 38800,
    "cats</w>": 3989,
    "catsofinstagram</w>": 39901,
    "catsoftwitter</w>": 17273,
    "catt": 37339,
    "cattle": 48799,
    "cattle</w>": 13644,
    "caturday</w>": 20892,
    "catwalk</w>": 36565,
    "catwoman</w>": 47251,
    "cau": 1121,
    "cau</w>": 45529,
    "caucus</w>": 18847,
    "caught</w>": 4520,
    "caul": 23460,
    "cauley</w>": 41682,
    "caulfield</w>": 44906,
    "cauli": 20123,
    "cauliflower</w>": 23802,
    "cause": 18982,
    "cause</w>": 1394,
    "caused</w>": 8940,
    "causes</w>": 9775,
    "causeway</w>": 35034,
    "causing</w>": 10779,
    "caution</w>": 15656,
    "cautious</w>": 36579,
    "cav": 4942,
    "cav</w>": 45935,
    "cava</w>": 48682,
    "caval": 24537,
    "cavali": 20783,
    "cavalier</w>": 44488,
    "cavaliers</w>": 30194,
    "cavalry</w>": 32467,
    "cave": 25441,
    "cave</w>": 9654,
    "cavendish</w>": 42945,
    "caver": 41487,
    "caves</w>": 22096,
    "cavi": 27360,
    "caviar</w>": 31228,
    "cavill</w>": 40492,
    "cavity</w>": 43156,
    "cavs</w>": 16800,
    "caw": 38405,
    "caw</w>": 43804,
    "cawx</w>": 26739,
    "cay": 11876,
    "cay</w>": 37399,
    "cayenne</w>": 43650,
    "cayman</w>": 33737,
    "caz": 48451,
    "cb": 4034,
    "cb</w>": 8830,
    "cba</w>": 38472,
    "cbb</w>": 31487,
    "cbc": 14096,
    "cbc</w>": 14523,
    "cbd</w>": 13176,
    "cbe</w>": 43639,
    "cbi</w>": 30875,
    "cbj</w>": 35608,
    "cbn</w>": 26579,
    "cbp</w>": 46723,
    "cbr</w>": 28762,
    "cbs": 16788,
    "cbs</w>": 8009,
    "cc": 2976,
    "cc</w>": 2021,
    "cca</w>": 17987,
    "ccc</w>": 21856,
    "ccd</w>": 48556,
    "ccg</w>": 37755,
    "cch": 21789,
    "cchini</w>": 28467,
    "cci": 32942,
    "cci</w>": 8196,
    "ccl</w>": 43773,
    "ccm</w>": 40435,
    "cco</w>": 28786,
    "ccot</w>": 24950,
    "ccp</w>": 43045,
    "ccs</w>": 30400,
    "cctv</w>": 23097,
    "ccu</w>": 49023,
    "cd": 4308,
    "cd</w>": 4480,
    "cda</w>": 45565,
    "cdc": 41098,
    "cdc</w>": 25779,
    "cdn": 8886,
    "cdn</w>": 26802,
    "cdnpoli</w>": 11645,
    "cdo</w>": 47187,
    "cdp</w>": 39624,
    "cds</w>": 20784,
    "cdt</w>": 18455,
    "ce": 685,
    "ce</w>": 629,
    "cea</w>": 28355,
    "cean": 34409,
    "cean</w>": 37295,
    "cease": 32856,
    "cease</w>": 25499,
    "ceasefire</w>": 38291,
    "cebu</w>": 20146,
    "cec": 29694,
    "cec</w>": 40029,
    "cecil": 26987,
    "cecil</w>": 27169,
    "cecilia</w>": 35440,
    "ced": 25634,
    "ced</w>": 2323,
    "cedar": 24167,
    "cedar</w>": 13799,
    "cedric</w>": 36608,
    "cee": 45966,
    "cee</w>": 15015,
    "cees</w>": 47914,
    "ceil": 27275,
    "ceiling</w>": 12374,
    "ceilings</w>": 33770,
    "cek</w>": 45544,
    "cel": 2269,
    "cel</w>": 7597,
    "cele": 1314,
    "celeb": 38862,
    "celeb</w>": 19393,
    "celebr": 1372,
    "celebrate": 31414,
    "celebrate</w>": 2694,
    "celebrated</w>": 9184,
    "celebrates</w>": 7564,
    "celebrating</w>": 3382,
    "celebration</w>": 4615,
    "celebrations</w>": 10825,
    "celebratory</w>": 34115,
    "celebrities</w>": 17071,
    "celebrity": 23981,
    "celebrity</w>": 7320,
    "celebs</w>": 19803,
    "celed</w>": 25741,
    "celer": 9621,
    "celery</w>": 30990,
    "celeste</w>": 29364,
    "celesti": 29497,
    "celestial</w>": 32669,
    "celi": 25567,
    "celia</w>": 44489,
    "celine</w>": 33644,
    "cell": 9316,
    "cell</w>": 5533,
    "cellar</w>": 24282,
    "cellars</w>": 44976,
    "cellence</w>": 34687,
    "cello</w>": 23013,
    "cellphone</w>": 39029,
    "cells</w>": 8890,
    "cellu": 16791,
    "cellular</w>": 23268,
    "cels</w>": 24021,
    "celsius</w>": 47057,
    "celtic": 21897,
    "celtic</w>": 10523,
    "celticfc</w>": 38612,
    "celtics</w>": 16226,
    "cem</w>": 41435,
    "ceme": 10517,
    "cement</w>": 4369,
    "cements</w>": 19448,
    "cemetery</w>": 11660,
    "cen": 1306,
    "cen</w>": 30106,
    "cena</w>": 21591,
    "cence</w>": 24410,
    "cency</w>": 41259,
    "cene</w>": 30038,
    "censor": 24230,
    "censor</w>": 44709,
    "censored</w>": 30951,
    "censorship</w>": 27284,
    "census</w>": 23677,
    "cent": 1784,
    "cent</w>": 3662,
    "centenary</w>": 22422,
    "centennial</w>": 20895,
    "center": 16651,
    "center</w>": 2119,
    "centered</w>": 24584,
    "centers</w>": 14494,
    "centi": 48889,
    "centime": 48687,
    "centr": 2370,
    "central": 13448,
    "central</w>": 3339,
    "centre": 26310,
    "centre</w>": 2916,
    "centred</w>": 47925,
    "centres</w>": 19354,
    "centri": 30872,
    "centric</w>": 19297,
    "centro</w>": 37178,
    "cents</w>": 11934,
    "centu": 16818,
    "centuri": 36816,
    "centuries</w>": 19014,
    "century": 26134,
    "century</w>": 4275,
    "ceo": 46340,
    "ceo</w>": 3559,
    "ceos</w>": 28332,
    "cep": 2632,
    "cep</w>": 48714,
    "ceph": 44343,
    "cept</w>": 3678,
    "ception</w>": 12346,
    "cer": 1364,
    "cer</w>": 1925,
    "cera</w>": 34608,
    "ceram": 10677,
    "ceramic</w>": 15112,
    "ceramics</w>": 22438,
    "cere": 3984,
    "cere</w>": 22085,
    "cereal</w>": 17581,
    "cereals</w>": 48618,
    "cerebral</w>": 39073,
    "ceremon": 15796,
    "ceremonial</w>": 33281,
    "ceremonies</w>": 21547,
    "ceremony</w>": 5193,
    "cern</w>": 44851,
    "cers</w>": 13638,
    "cert</w>": 27522,
    "certain": 8526,
    "certain</w>": 7883,
    "certainly</w>": 10883,
    "certainty</w>": 20054,
    "certi": 4888,
    "certific": 9443,
    "certificate</w>": 11786,
    "certificates</w>": 25281,
    "certification</w>": 14735,
    "certified</w>": 9288,
    "cerv": 25738,
    "cervical</w>": 35953,
    "ces": 28715,
    "ces</w>": 1604,
    "cesar": 37025,
    "cesar</w>": 28603,
    "cess": 2314,
    "cess</w>": 1554,
    "cessna</w>": 36596,
    "cest</w>": 27245,
    "cester": 15769,
    "cester</w>": 12718,
    "cet</w>": 14960,
    "cett</w>": 46708,
    "ceu</w>": 37457,
    "cevic": 48369,
    "cey</w>": 20971,
    "cf": 10189,
    "cf</w>": 11171,
    "cfa</w>": 34521,
    "cfb</w>": 32931,
    "cfc</w>": 11577,
    "cfd</w>": 46171,
    "cfl": 46320,
    "cfl</w>": 22332,
    "cfo</w>": 26937,
    "cfp</w>": 40756,
    "cfr</w>": 44033,
    "cfs</w>": 32835,
    "cg": 27118,
    "cg</w>": 14740,
    "cgc</w>": 38775,
    "cgi</w>": 30520,
    "ch": 540,
    "ch</w>": 634,
    "cha": 1587,
    "cha</w>": 4541,
    "chab": 26670,
    "chad": 13095,
    "chad</w>": 12923,
    "chae": 9460,
    "chaf": 38123,
    "chag": 27989,
    "chai": 31590,
    "chai</w>": 18919,
    "chain": 13898,
    "chain</w>": 3946,
    "chained</w>": 34402,
    "chains</w>": 14438,
    "chainsaw</w>": 37617,
    "chainz</w>": 39687,
    "chair": 4728,
    "chair</w>": 4269,
    "chaired</w>": 31664,
    "chairing</w>": 42205,
    "chairman</w>": 6901,
    "chairperson</w>": 31584,
    "chairs</w>": 12033,
    "chak": 13702,
    "chak</w>": 41713,
    "chakra": 38304,
    "chakra</w>": 33241,
    "chal": 7397,
    "chal</w>": 30809,
    "chale</w>": 38099,
    "chalet</w>": 37907,
    "chalk": 31362,
    "chalk</w>": 17846,
    "chall": 2073,
    "challeng": 4138,
    "challenge": 29462,
    "challenge</w>": 2836,
    "challenged</w>": 17380,
    "challenger</w>": 18228,
    "challengers</w>": 46404,
    "challenges</w>": 6280,
    "challenging</w>": 11754,
    "chalmers</w>": 47955,
    "cham": 1290,
    "cham</w>": 19951,
    "chamber": 18983,
    "chamber</w>": 7642,
    "chamberlain</w>": 32756,
    "chambers</w>": 16501,
    "chamele": 34759,
    "chameleon</w>": 41317,
    "champ": 36813,
    "champ</w>": 6602,
    "champag": 10283,
    "champagne</w>": 11007,
    "champi": 1680,
    "champion": 2643,
    "champion</w>": 3950,
    "champions</w>": 4227,
    "championship</w>": 3429,
    "championships</w>": 7047,
    "championsleague</w>": 27638,
    "champs</w>": 6240,
    "chan": 1255,
    "chan</w>": 6704,
    "chana</w>": 48752,
    "chanc": 13931,
    "chance": 32940,
    "chance</w>": 2594,
    "chancellor</w>": 15886,
    "chances</w>": 10870,
    "chand": 7126,
    "chand</w>": 41508,
    "chandelier</w>": 30570,
    "chandi": 12482,
    "chandigarh</w>": 34106,
    "chandler</w>": 17595,
    "chandra": 27082,
    "chandra</w>": 25348,
    "chanel</w>": 16951,
    "chang": 2233,
    "chang</w>": 16461,
    "change": 11608,
    "change</w>": 1799,
    "changeable</w>": 41335,
    "changed</w>": 4907,
    "changer</w>": 18406,
    "changers</w>": 35185,
    "changes</w>": 4938,
    "changing": 40384,
    "changing</w>": 5621,
    "changmin</w>": 47410,
    "chann": 8804,
    "channel": 25837,
    "channel</w>": 3847,
    "channeling</w>": 28197,
    "channels</w>": 13961,
    "channing</w>": 37417,
    "chant": 18165,
    "chant</w>": 13521,
    "chanting</w>": 32111,
    "chants</w>": 22723,
    "chanyeol</w>": 18805,
    "chao</w>": 31815,
    "chaos</w>": 10853,
    "chaotic</w>": 33501,
    "chap": 3825,
    "chap</w>": 21939,
    "chapel": 40859,
    "chapel</w>": 10137,
    "chaplain</w>": 38348,
    "chaplin</w>": 32545,
    "chapman</w>": 17968,
    "chapp": 20634,
    "chaps</w>": 36823,
    "chapter</w>": 6014,
    "chapters</w>": 22936,
    "char": 1054,
    "char</w>": 16017,
    "chara</w>": 35668,
    "charac": 2792,
    "character": 10997,
    "character</w>": 4009,
    "characterdesign</w>": 38149,
    "characteri": 20920,
    "characteristic</w>": 44747,
    "characteristics</w>": 26037,
    "characters</w>": 6564,
    "charan</w>": 31851,
    "charcoal</w>": 19268,
    "chard</w>": 17524,
    "chardon": 26599,
    "chardonnay</w>": 28161,
    "charge": 25032,
    "charge</w>": 5948,
    "chargeable</w>": 35664,
    "charged</w>": 7916,
    "charger</w>": 13090,
    "chargers</w>": 17352,
    "charges</w>": 8962,
    "charging</w>": 12514,
    "chariot</w>": 38811,
    "charis": 24449,
    "charisma</w>": 45041,
    "charismatic</w>": 37205,
    "charitable</w>": 23256,
    "charities</w>": 18493,
    "charity": 20008,
    "charity</w>": 4607,
    "charitytuesday</w>": 42794,
    "charl": 47736,
    "charle": 10217,
    "charles": 27983,
    "charles</w>": 5127,
    "charleston</w>": 15478,
    "charley</w>": 38027,
    "charli": 21784,
    "charli</w>": 49392,
    "charlie": 16764,
    "charlie</w>": 6393,
    "charlotte": 18445,
    "charlotte</w>": 7871,
    "charlottesville</w>": 32027,
    "charlton</w>": 27048,
    "charm</w>": 10876,
    "charmed</w>": 39790,
    "charming</w>": 12177,
    "charms</w>": 21944,
    "charred</w>": 44085,
    "chart": 42685,
    "chart</w>": 5053,
    "charted</w>": 27939,
    "charter": 42345,
    "charter</w>": 13569,
    "chartered</w>": 31298,
    "charters</w>": 46626,
    "charting</w>": 39841,
    "charts</w>": 10728,
    "chas": 10717,
    "chas</w>": 29838,
    "chase": 21503,
    "chase</w>": 3859,
    "chased</w>": 30342,
    "chaser</w>": 29560,
    "chasers</w>": 34158,
    "chases</w>": 45011,
    "chasing": 46909,
    "chasing</w>": 13376,
    "chassis</w>": 29188,
    "chast": 42176,
    "chasu": 41352,
    "chat": 5355,
    "chat</w>": 2402,
    "chatbots</w>": 43994,
    "chate": 30377,
    "chateau": 44582,
    "chateau</w>": 23520,
    "chath": 46849,
    "chatham</w>": 32030,
    "chats</w>": 13263,
    "chatt": 21618,
    "chattanoo": 28009,
    "chattanooga</w>": 29866,
    "chatted</w>": 34124,
    "chatter": 33473,
    "chatter</w>": 41103,
    "chatting</w>": 12401,
    "chatur": 33839,
    "chau": 11263,
    "chau</w>": 37536,
    "chauffe": 45440,
    "chauhan</w>": 46663,
    "chav": 28997,
    "chavez</w>": 27480,
    "chaw": 39639,
    "chay": 45317,
    "chaz": 47815,
    "chc</w>": 36233,
    "chd</w>": 41645,
    "che": 983,
    "che</w>": 3842,
    "chea</w>": 39580,
    "chead": 48358,
    "cheap": 27036,
    "cheap</w>": 8678,
    "cheape": 26164,
    "cheaper</w>": 17776,
    "cheapest</w>": 26640,
    "cheat</w>": 18180,
    "cheated</w>": 34285,
    "cheating</w>": 19722,
    "chec": 1113,
    "check": 7672,
    "check</w>": 1217,
    "checked</w>": 10387,
    "checker</w>": 45883,
    "checkers</w>": 48181,
    "checking</w>": 7441,
    "checklist</w>": 26989,
    "checkout</w>": 13101,
    "checkpoint</w>": 27531,
    "checks</w>": 13737,
    "ched": 11341,
    "ched</w>": 2146,
    "cheddar</w>": 20551,
    "chee": 5326,
    "chee</w>": 20944,
    "cheek": 40000,
    "cheek</w>": 21227,
    "cheeks</w>": 23019,
    "cheeky</w>": 15068,
    "cheer": 9733,
    "cheer</w>": 6918,
    "cheered</w>": 38111,
    "cheerful</w>": 28882,
    "cheering</w>": 14289,
    "cheerleader</w>": 29072,
    "cheerleaders</w>": 22343,
    "cheerleading</w>": 36366,
    "cheers</w>": 6562,
    "chees": 15182,
    "cheese": 10738,
    "cheese</w>": 4108,
    "cheeseburger</w>": 41200,
    "cheesecake</w>": 17803,
    "cheeses</w>": 36076,
    "cheesy</w>": 22093,
    "cheetah</w>": 27431,
    "chef": 12137,
    "chef</w>": 4895,
    "chefs</w>": 14486,
    "chek</w>": 43745,
    "chel": 3084,
    "chel</w>": 25970,
    "chell</w>": 46854,
    "chelle</w>": 30141,
    "chelms": 34936,
    "chelmsford</w>": 39890,
    "chelse": 19071,
    "chelsea</w>": 6031,
    "chelseafc</w>": 25927,
    "chelten": 18889,
    "cheltenham</w>": 21589,
    "chem": 5667,
    "chem</w>": 13698,
    "chemi": 7179,
    "chemical": 39376,
    "chemical</w>": 9208,
    "chemicals</w>": 17426,
    "chemist</w>": 23138,
    "chemistry</w>": 8841,
    "chemo": 33095,
    "chemo</w>": 36348,
    "chemotherapy</w>": 41412,
    "chemtrails</w>": 46015,
    "chen": 5907,
    "chen</w>": 8983,
    "cheney</w>": 43522,
    "cheng": 32512,
    "cheng</w>": 30190,
    "chenko</w>": 29073,
    "chennai": 28948,
    "chennai</w>": 12791,
    "cheon</w>": 11498,
    "cheque</w>": 28168,
    "cher": 3597,
    "cher</w>": 3466,
    "cheri": 26471,
    "cherish</w>": 20053,
    "cherished</w>": 42325,
    "cherno": 35376,
    "chernobyl</w>": 40554,
    "chero": 19844,
    "cherokee</w>": 22860,
    "cherries</w>": 27248,
    "cherry": 21470,
    "cherry</w>": 7325,
    "chers</w>": 5789,
    "chery</w>": 38478,
    "cheryl": 37784,
    "cheryl</w>": 20600,
    "ches": 18346,
    "ches</w>": 1910,
    "chesa": 28349,
    "chesapeake</w>": 32909,
    "cheshire</w>": 17130,
    "chesney</w>": 48747,
    "chess": 27170,
    "chess</w>": 8397,
    "chest": 18217,
    "chest</w>": 10563,
    "chester": 10466,
    "chester</w>": 3343,
    "chesterfield</w>": 32975,
    "chestnut</w>": 21834,
    "chet</w>": 9663,
    "chett</w>": 24695,
    "chev": 7152,
    "chev</w>": 41145,
    "chevro": 12850,
    "chevrolet</w>": 13240,
    "chevron</w>": 33792,
    "chevy</w>": 16581,
    "chew": 32645,
    "chew</w>": 22642,
    "chewan</w>": 23689,
    "chewbacca</w>": 49355,
    "chewing</w>": 31486,
    "chewy</w>": 42940,
    "chey": 26968,
    "chey</w>": 31208,
    "cheyenne</w>": 34805,
    "chez": 49183,
    "chez</w>": 10556,
    "chf</w>": 33021,
    "chfield</w>": 41619,
    "chhat": 34127,
    "chhattisgarh</w>": 44246,
    "chi": 1337,
    "chi</w>": 4039,
    "chia</w>": 19147,
    "chiang</w>": 33764,
    "chibi</w>": 22306,
    "chic": 2627,
    "chic</w>": 9091,
    "chica</w>": 44190,
    "chicag": 16778,
    "chicago": 15038,
    "chicago</w>": 3530,
    "chicagof": 40638,
    "chicagofire</w>": 46576,
    "chicas</w>": 40664,
    "chichester</w>": 43823,
    "chick": 3170,
    "chick</w>": 11238,
    "chicken": 26322,
    "chicken</w>": 3717,
    "chickens</w>": 21658,
    "chickpea</w>": 48109,
    "chicks</w>": 17810,
    "chico</w>": 30379,
    "chie": 40046,
    "chie</w>": 12388,
    "chief": 16830,
    "chief</w>": 3455,
    "chiefs</w>": 11419,
    "chiev": 47761,
    "chiff": 27407,
    "chiffon</w>": 31817,
    "chig": 42952,
    "chihu": 22857,
    "chihuahu": 25437,
    "chihuahua</w>": 30181,
    "chik</w>": 45455,
    "chil": 1333,
    "child": 4392,
    "child</w>": 2913,
    "childcare</w>": 31133,
    "childhood": 34772,
    "childhood</w>": 7551,
    "childish</w>": 31939,
    "childre": 2135,
    "children": 11101,
    "children</w>": 2153,
    "childrens": 31551,
    "childrens</w>": 21553,
    "childs</w>": 39521,
    "chile</w>": 10022,
    "chilean</w>": 33186,
    "chili</w>": 13033,
    "chill": 6498,
    "chill</w>": 6382,
    "chilled</w>": 23540,
    "chillen</w>": 45160,
    "chilli": 26787,
    "chilli</w>": 17067,
    "chillin</w>": 10347,
    "chilling</w>": 10179,
    "chillout</w>": 39842,
    "chills</w>": 25460,
    "chilly</w>": 14450,
    "chim": 10543,
    "chimney</w>": 26821,
    "chimp</w>": 44374,
    "chin": 6555,
    "chin</w>": 8979,
    "china": 38943,
    "china</w>": 2817,
    "chinatown</w>": 28582,
    "chine": 4013,
    "chinese": 30568,
    "chinese</w>": 4271,
    "ching": 34621,
    "ching</w>": 1439,
    "chino": 47181,
    "chino</w>": 27440,
    "chinook</w>": 41577,
    "chinson</w>": 33786,
    "chio</w>": 19650,
    "chip": 19271,
    "chip</w>": 8730,
    "chipmun": 46384,
    "chipot": 17702,
    "chipotle</w>": 19284,
    "chipp": 39854,
    "chippe": 46541,
    "chipped</w>": 39892,
    "chipping</w>": 40323,
    "chips</w>": 8855,
    "chir": 15564,
    "chiro": 23413,
    "chiroprac": 25987,
    "chiropractic</w>": 34437,
    "chis": 19920,
    "chistan</w>": 20523,
    "chiswick</w>": 47290,
    "chit": 13515,
    "chit</w>": 45626,
    "chita</w>": 49184,
    "chitec": 39862,
    "chive</w>": 29222,
    "chives</w>": 34921,
    "chk</w>": 47424,
    "chl</w>": 38592,
    "chley</w>": 47748,
    "chlo": 10374,
    "chloe": 39966,
    "chloe</w>": 13992,
    "chlor": 23135,
    "chman</w>": 35835,
    "chment</w>": 20848,
    "chner</w>": 48277,
    "cho": 1327,
    "cho</w>": 5150,
    "choa</w>": 43077,
    "choc": 32772,
    "choc</w>": 21983,
    "choco": 46285,
    "choco</w>": 32692,
    "chocol": 3443,
    "chocolat</w>": 44631,
    "chocolate": 29389,
    "chocolate</w>": 3820,
    "chocolates</w>": 24120,
    "choi</w>": 23749,
    "choic": 35606,
    "choice": 23857,
    "choice</w>": 4051,
    "choices</w>": 11016,
    "choir</w>": 9214,
    "choirs</w>": 43277,
    "choke</w>": 30231,
    "choked</w>": 43521,
    "choker</w>": 39642,
    "choking</w>": 39993,
    "chol": 19802,
    "cholera</w>": 45999,
    "cholester": 26861,
    "cholesterol</w>": 27982,
    "chom": 25151,
    "chon": 20416,
    "chon</w>": 21601,
    "chondri": 37379,
    "chong</w>": 26220,
    "choo": 3869,
    "choo</w>": 24437,
    "chool</w>": 29578,
    "chools</w>": 41958,
    "choose": 22756,
    "choose</w>": 5073,
    "chooses</w>": 29923,
    "choosing</w>": 13475,
    "chop": 10458,
    "chop</w>": 16663,
    "chopin</w>": 42256,
    "chopped</w>": 22580,
    "chopper</w>": 24011,
    "chopping</w>": 35375,
    "chopra</w>": 24258,
    "chops</w>": 26321,
    "chor": 7567,
    "chor</w>": 47795,
    "choral</w>": 26684,
    "chord</w>": 33005,
    "chords</w>": 36152,
    "choreo": 17443,
    "choreographer</w>": 35952,
    "choreography</w>": 32749,
    "chores</w>": 40483,
    "chori": 25718,
    "chorizo</w>": 30802,
    "chorus</w>": 20869,
    "chos</w>": 26559,
    "chose</w>": 11090,
    "chosen</w>": 10044,
    "chou": 16960,
    "chou</w>": 42917,
    "choudhary</w>": 45503,
    "chow": 20257,
    "chow</w>": 21657,
    "chowder</w>": 37886,
    "chp</w>": 35896,
    "chr</w>": 36918,
    "chri": 1135,
    "chris": 9907,
    "chris</w>": 2978,
    "chrisbrown</w>": 41035,
    "chriss": 46745,
    "chrissy": 44762,
    "chrissy</w>": 40485,
    "christ": 1403,
    "christ</w>": 6703,
    "christchurch</w>": 27100,
    "christen": 31956,
    "christensen</w>": 42226,
    "christi": 3328,
    "christi</w>": 33213,
    "christian": 11792,
    "christian</w>": 4729,
    "christianity</w>": 20000,
    "christians</w>": 14842,
    "christie</w>": 16084,
    "christin": 30189,
    "christina</w>": 15925,
    "christine": 42610,
    "christine</w>": 14712,
    "christma": 12039,
    "christmas": 18174,
    "christmas</w>": 1677,
    "christmaseve</w>": 44381,
    "christmass": 44873,
    "christop": 7917,
    "christoph</w>": 47844,
    "christophe</w>": 45486,
    "christopher": 33349,
    "christopher</w>": 9630,
    "christy</w>": 28331,
    "chro": 13207,
    "chromatic</w>": 44207,
    "chrome": 24843,
    "chrome</w>": 9529,
    "chromo": 35809,
    "chron": 5577,
    "chron</w>": 39781,
    "chronic": 10115,
    "chronic</w>": 13677,
    "chronicle</w>": 20034,
    "chronicles</w>": 18905,
    "chrono": 29387,
    "chronograph</w>": 38397,
    "chry": 13508,
    "chrysler</w>": 20078,
    "chs": 40277,
    "chs</w>": 8391,
    "chsnews</w>": 44919,
    "cht</w>": 11384,
    "chter</w>": 47811,
    "chu": 3799,
    "chu</w>": 13622,
    "chubby</w>": 29109,
    "chuck": 13211,
    "chuck</w>": 9894,
    "chuckle</w>": 35733,
    "chucky</w>": 42026,
    "chuffed</w>": 27233,
    "chuk": 25878,
    "chuk</w>": 27221,
    "chul</w>": 33001,
    "chum": 46869,
    "chum</w>": 41767,
    "chun": 14693,
    "chun</w>": 25391,
    "chung</w>": 28418,
    "chunk</w>": 30275,
    "chunks</w>": 45538,
    "chunky</w>": 27978,
    "chups</w>": 46331,
    "chur": 2309,
    "church": 14956,
    "church</w>": 2735,
    "churches</w>": 15539,
    "churchill</w>": 17527,
    "chus</w>": 36246,
    "chut": 28788,
    "chutney</w>": 36261,
    "chy": 15131,
    "chy</w>": 8096,
    "chyna</w>": 43398,
    "chÃ¢": 48669,
    "ci": 698,
    "ci</w>": 5798,
    "cia</w>": 4019,
    "cial</w>": 1143,
    "cian</w>": 32323,
    "ciao</w>": 37677,
    "ciara</w>": 31369,
    "cible</w>": 28873,
    "cic": 14539,
    "cic</w>": 21517,
    "cid</w>": 27359,
    "cide</w>": 34178,
    "cider</w>": 13547,
    "cides</w>": 41326,
    "cie</w>": 19730,
    "cier": 24067,
    "cies</w>": 6785,
    "cif</w>": 35698,
    "cigar": 26031,
    "cigar</w>": 16525,
    "cigare": 13044,
    "cigarette</w>": 18548,
    "cigarettes</w>": 22750,
    "cigars</w>": 20750,
    "cii</w>": 42408,
    "cil": 9217,
    "cil</w>": 2998,
    "cilan": 33998,
    "cilantro</w>": 34568,
    "cili": 18977,
    "ciliation</w>": 25294,
    "cim</w>": 30021,
    "cin": 2396,
    "cin</w>": 25367,
    "cina</w>": 39467,
    "cincin": 13291,
    "cincinnati</w>": 14197,
    "cinco</w>": 25131,
    "cincode": 40930,
    "cincodemayo</w>": 42542,
    "cincy": 30015,
    "cincy</w>": 30286,
    "cinde": 20660,
    "cinderella</w>": 21515,
    "cindy": 34439,
    "cindy</w>": 18532,
    "cine": 4015,
    "cine</w>": 27451,
    "cinema": 38251,
    "cinema</w>": 6443,
    "cinemas</w>": 14845,
    "cinematic</w>": 25602,
    "cinemato": 21919,
    "cinematographer</w>": 39059,
    "cinematography</w>": 33802,
    "ciner": 39882,
    "cing</w>": 4014,
    "cini</w>": 25699,
    "cinnam": 12768,
    "cinnamon</w>": 13460,
    "cino</w>": 18616,
    "cio": 44584,
    "cio</w>": 9954,
    "cion</w>": 22024,
    "ciones</w>": 37155,
    "cious</w>": 38466,
    "cip": 32884,
    "cir": 2459,
    "cir</w>": 41135,
    "circa</w>": 10411,
    "circle": 33574,
    "circle</w>": 7117,
    "circles</w>": 19411,
    "circling</w>": 46036,
    "circu": 5143,
    "circuit": 35583,
    "circuit</w>": 9801,
    "circuits</w>": 33260,
    "circul": 16618,
    "circular</w>": 19733,
    "circulare": 39525,
    "circulareconomy</w>": 39878,
    "circulated</w>": 46258,
    "circulating</w>": 42980,
    "circulation</w>": 27880,
    "circum": 13406,
    "circumstances</w>": 18786,
    "circus</w>": 11833,
    "cirque</w>": 36049,
    "cis": 9459,
    "cis</w>": 23513,
    "cisco": 36689,
    "cisco</w>": 19290,
    "cise</w>": 19657,
    "cisely</w>": 33434,
    "cision</w>": 41957,
    "cism</w>": 24166,
    "cist</w>": 40906,
    "cit": 4420,
    "cit</w>": 31294,
    "citadel</w>": 38036,
    "citation</w>": 33581,
    "cite</w>": 32641,
    "cited</w>": 25069,
    "cites</w>": 34490,
    "citi": 4280,
    "citi</w>": 30270,
    "cities</w>": 5441,
    "citing</w>": 29088,
    "citiz": 5816,
    "citizen": 11720,
    "citizen</w>": 9814,
    "citizens</w>": 7949,
    "citizenship</w>": 17386,
    "cito</w>": 42636,
    "citro": 27941,
    "citroen</w>": 35805,
    "citrus</w>": 17379,
    "city": 5002,
    "city</w>": 1305,
    "cityfc</w>": 28751,
    "cityo": 25709,
    "cityof": 11595,
    "cityscape</w>": 40808,
    "ciu": 39693,
    "cius</w>": 42559,
    "civ": 40039,
    "civic": 32240,
    "civic</w>": 11888,
    "civil": 6923,
    "civil</w>": 6450,
    "civilian</w>": 21187,
[...]
